{"version":"1.0","truncation":null,"padding":null,"added_tokens":[{"id":0,"special":true,"content":"[PAD]","single_word":false,"lstrip":false,"rstrip":false,"normalized":false},{"id":100,"special":true,"content":"[UNK]","single_word":false,"lstrip":false,"rstrip":false,"normalized":false},{"id":101,"special":true,"content":"[CLS]","single_word":false,"lstrip":false,"rstrip":false,"normalized":false},{"id":102,"special":true,"content":"[SEP]","single_word":false,"lstrip":false,"rstrip":false,"normalized":false},{"id":103,"special":true,"content":"[MASK]","single_word":false,"lstrip":false,"rstrip":false,"normalized":false}],"normalizer":{"type":"BertNormalizer","clean_text":true,"handle_chinese_chars":true,"strip_accents":null,"lowercase":false},"pre_tokenizer":{"type":"BertPreTokenizer"},"post_processor":{"type":"TemplateProcessing","single":[{"SpecialToken":{"id":"[CLS]","type_id":0}},{"Sequence":{"id":"A","type_id":0}},{"SpecialToken":{"id":"[SEP]","type_id":0}}],"pair":[{"SpecialToken":{"id":"[CLS]","type_id":0}},{"Sequence":{"id":"A","type_id":0}},{"SpecialToken":{"id":"[SEP]","type_id":0}},{"Sequence":{"id":"B","type_id":1}},{"SpecialToken":{"id":"[SEP]","type_id":1}}],"special_tokens":{"[SEP]":{"id":"[SEP]","ids":[102],"tokens":["[SEP]"]},"[CLS]":{"id":"[CLS]","ids":[101],"tokens":["[CLS]"]}}},"decoder":{"type":"WordPiece","prefix":"##","cleanup":true},"model":{"unk_token":"[UNK]","continuing_subword_prefix":"##","max_input_chars_per_word":100,"vocab":{"[PAD]":0,"[unused1]":1,"[unused2]":2,"[unused3]":3,"[unused4]":4,"[unused5]":5,"[unused6]":6,"[unused7]":7,"[unused8]":8,"[unused9]":9,"[unused10]":10,"[unused11]":11,"[unused12]":12,"[unused13]":13,"[unused14]":14,"[unused15]":15,"[unused16]":16,"[unused17]":17,"[unused18]":18,"[unused19]":19,"[unused20]":20,"[unused21]":21,"[unused22]":22,"[unused23]":23,"[unused24]":24,"[unused25]":25,"[unused26]":26,"[unused27]":27,"[unused28]":28,"[unused29]":29,"[unused30]":30,"[unused31]":31,"[unused32]":32,"[unused33]":33,"[unused34]":34,"[unused35]":35,"[unused36]":36,"[unused37]":37,"[unused38]":38,"[unused39]":39,"[unused40]":40,"[unused41]":41,"[unused42]":42,"[unused43]":43,"[unused44]":44,"[unused45]":45,"[unused46]":46,"[unused47]":47,"[unused48]":48,"[unused49]":49,"[unused50]":50,"[unused51]":51,"[unused52]":52,"[unused53]":53,"[unused54]":54,"[unused55]":55,"[unused56]":56,"[unused57]":57,"[unused58]":58,"[unused59]":59,"[unused60]":60,"[unused61]":61,"[unused62]":62,"[unused63]":63,"[unused64]":64,"[unused65]":65,"[unused66]":66,"[unused67]":67,"[unused68]":68,"[unused69]":69,"[unused70]":70,"[unused71]":71,"[unused72]":72,"[unused73]":73,"[unused74]":74,"[unused75]":75,"[unused76]":76,"[unused77]":77,"[unused78]":78,"[unused79]":79,"[unused80]":80,"[unused81]":81,"[unused82]":82,"[unused83]":83,"[unused84]":84,"[unused85]":85,"[unused86]":86,"[unused87]":87,"[unused88]":88,"[unused89]":89,"[unused90]":90,"[unused91]":91,"[unused92]":92,"[unused93]":93,"[unused94]":94,"[unused95]":95,"[unused96]":96,"[unused97]":97,"[unused98]":98,"[unused99]":99,"[UNK]":100,"[CLS]":101,"[SEP]":102,"[MASK]":103,"<S>":104,"<T>":105,"!":106,"\"":107,"#":108,"$":109,"%":110,"&":111,"'":112,"(":113,")":114,"*":115,"+":116,",":117,"-":118,".":119,"/":120,"0":121,"1":122,"2":123,"3":124,"4":125,"5":126,"6":127,"7":128,"8":129,"9":130,":":131,";":132,"<":133,"=":134,">":135,"?":136,"@":137,"A":138,"B":139,"C":140,"D":141,"E":142,"F":143,"G":144,"H":145,"I":146,"J":147,"K":148,"L":149,"M":150,"N":151,"O":152,"P":153,"Q":154,"R":155,"S":156,"T":157,"U":158,"V":159,"W":160,"X":161,"Y":162,"Z":163,"[":164,"\\":165,"]":166,"^":167,"_":168,"a":169,"b":170,"c":171,"d":172,"e":173,"f":174,"g":175,"h":176,"i":177,"j":178,"k":179,"l":180,"m":181,"n":182,"o":183,"p":184,"q":185,"r":186,"s":187,"t":188,"u":189,"v":190,"w":191,"x":192,"y":193,"z":194,"{":195,"|":196,"}":197,"~":198,"¡":199,"¢":200,"£":201,"¥":202,"¦":203,"§":204,"¨":205,"©":206,"ª":207,"«":208,"¬":209,"®":210,"°":211,"±":212,"²":213,"³":214,"µ":215,"¶":216,"·":217,"¹":218,"º":219,"»":220,"¼":221,"½":222,"¾":223,"¿":224,"À":225,"Á":226,"Â":227,"Ã":228,"Ä":229,"Å":230,"Æ":231,"Ç":232,"È":233,"É":234,"Ê":235,"Ë":236,"Ì":237,"Í":238,"Î":239,"Ð":240,"Ñ":241,"Ò":242,"Ó":243,"Ô":244,"Õ":245,"Ö":246,"×":247,"Ø":248,"Ú":249,"Ü":250,"Ý":251,"Þ":252,"ß":253,"à":254,"á":255,"â":256,"ã":257,"ä":258,"å":259,"æ":260,"ç":261,"è":262,"é":263,"ê":264,"ë":265,"ì":266,"í":267,"î":268,"ï":269,"ð":270,"ñ":271,"ò":272,"ó":273,"ô":274,"õ":275,"ö":276,"÷":277,"ø":278,"ù":279,"ú":280,"û":281,"ü":282,"ý":283,"þ":284,"ÿ":285,"Ā":286,"ā":287,"Ă":288,"ă":289,"Ą":290,"ą":291,"Ć":292,"ć":293,"Č":294,"č":295,"Ď":296,"ď":297,"Đ":298,"đ":299,"Ē":300,"ē":301,"Ĕ":302,"ĕ":303,"Ė":304,"ė":305,"ę":306,"ě":307,"Ğ":308,"ğ":309,"ġ":310,"Ģ":311,"ģ":312,"Ħ":313,"ħ":314,"ĩ":315,"Ī":316,"ī":317,"Į":318,"į":319,"İ":320,"ı":321,"Ķ":322,"ķ":323,"ĺ":324,"Ļ":325,"ļ":326,"Ľ":327,"ľ":328,"Ł":329,"ł":330,"ń":331,"Ņ":332,"ņ":333,"ň":334,"ŉ":335,"ŋ":336,"Ō":337,"ō":338,"ŏ":339,"Ő":340,"ő":341,"Œ":342,"œ":343,"ŕ":344,"Ř":345,"ř":346,"Ś":347,"ś":348,"Ş":349,"ş":350,"Š":351,"š":352,"Ţ":353,"ţ":354,"Ť":355,"ť":356,"ũ":357,"Ū":358,"ū":359,"ŭ":360,"ů":361,"Ű":362,"ű":363,"ų":364,"ŵ":365,"ŷ":366,"Ź":367,"ź":368,"Ż":369,"ż":370,"Ž":371,"ž":372,"Ə":373,"ƒ":374,"ơ":375,"Ư":376,"ư":377,"ǎ":378,"ǐ":379,"ǔ":380,"ǫ":381,"ǹ":382,"Ș":383,"ș":384,"Ț":385,"ț":386,"ɐ":387,"ɑ":388,"ɔ":389,"ɕ":390,"ə":391,"ɛ":392,"ɡ":393,"ɣ":394,"ɨ":395,"ɪ":396,"ɲ":397,"ɾ":398,"ʁ":399,"ʃ":400,"ʊ":401,"ʎ":402,"ʒ":403,"ʔ":404,"ʙ":405,"ʰ":406,"ʲ":407,"ʳ":408,"ʷ":409,"ʸ":410,"ʻ":411,"ʼ":412,"ʾ":413,"ʿ":414,"ˈ":415,"ː":416,"ˡ":417,"ˢ":418,"̀":419,"́":420,"̃":421,"̄":422,"̍":423,"̥":424,"̧":425,"̲":426,"͡":427,"΄":428,"Ά":429,"Έ":430,"Ή":431,"Ί":432,"Ό":433,"Ύ":434,"Ώ":435,"ΐ":436,"Α":437,"Β":438,"Γ":439,"Δ":440,"Ε":441,"Ζ":442,"Η":443,"Θ":444,"Ι":445,"Κ":446,"Λ":447,"Μ":448,"Ν":449,"Ξ":450,"Ο":451,"Π":452,"Ρ":453,"Σ":454,"Τ":455,"Υ":456,"Φ":457,"Χ":458,"Ψ":459,"Ω":460,"ά":461,"έ":462,"ή":463,"ί":464,"α":465,"β":466,"γ":467,"δ":468,"ε":469,"ζ":470,"η":471,"θ":472,"ι":473,"κ":474,"λ":475,"μ":476,"ν":477,"ξ":478,"ο":479,"π":480,"ρ":481,"ς":482,"σ":483,"τ":484,"υ":485,"φ":486,"χ":487,"ψ":488,"ω":489,"ϊ":490,"ϋ":491,"ό":492,"ύ":493,"ώ":494,"Ё":495,"Ђ":496,"Ѓ":497,"Є":498,"Ѕ":499,"І":500,"Ї":501,"Ј":502,"Љ":503,"Њ":504,"Ћ":505,"Ќ":506,"Ў":507,"Џ":508,"А":509,"Б":510,"В":511,"Г":512,"Д":513,"Е":514,"Ж":515,"З":516,"И":517,"Й":518,"К":519,"Л":520,"М":521,"Н":522,"О":523,"П":524,"Р":525,"С":526,"Т":527,"У":528,"Ф":529,"Х":530,"Ц":531,"Ч":532,"Ш":533,"Щ":534,"Ъ":535,"Ы":536,"Ь":537,"Э":538,"Ю":539,"Я":540,"а":541,"б":542,"в":543,"г":544,"д":545,"е":546,"ж":547,"з":548,"и":549,"й":550,"к":551,"л":552,"м":553,"н":554,"о":555,"п":556,"р":557,"с":558,"т":559,"у":560,"ф":561,"х":562,"ц":563,"ч":564,"ш":565,"щ":566,"ъ":567,"ы":568,"ь":569,"э":570,"ю":571,"я":572,"ѐ":573,"ё":574,"ђ":575,"ѓ":576,"є":577,"ѕ":578,"і":579,"ї":580,"ј":581,"љ":582,"њ":583,"ћ":584,"ќ":585,"ѝ":586,"ў":587,"џ":588,"ѣ":589,"Ґ":590,"ґ":591,"Ғ":592,"ғ":593,"Җ":594,"җ":595,"Ҙ":596,"ҙ":597,"Қ":598,"қ":599,"Ҡ":600,"ҡ":601,"ң":602,"ҫ":603,"Ү":604,"ү":605,"Ұ":606,"ұ":607,"Ҳ":608,"ҳ":609,"Ҷ":610,"ҷ":611,"Һ":612,"һ":613,"Ӏ":614,"ӑ":615,"ӗ":616,"Ә":617,"ә":618,"ӣ":619,"Ө":620,"ө":621,"Ӯ":622,"ӯ":623,"ӳ":624,"Ա":625,"Բ":626,"Գ":627,"Դ":628,"Ե":629,"Զ":630,"Է":631,"Ը":632,"Թ":633,"Ժ":634,"Ի":635,"Լ":636,"Խ":637,"Ծ":638,"Կ":639,"Հ":640,"Ձ":641,"Ղ":642,"Ճ":643,"Մ":644,"Յ":645,"Ն":646,"Շ":647,"Ո":648,"Չ":649,"Պ":650,"Ջ":651,"Ռ":652,"Ս":653,"Վ":654,"Տ":655,"Ր":656,"Ց":657,"Ւ":658,"Փ":659,"Ք":660,"Օ":661,"Ֆ":662,"՚":663,"՛":664,"՜":665,"՝":666,"՞":667,"ա":668,"բ":669,"գ":670,"դ":671,"ե":672,"զ":673,"է":674,"ը":675,"թ":676,"ժ":677,"ի":678,"լ":679,"խ":680,"ծ":681,"կ":682,"հ":683,"ձ":684,"ղ":685,"ճ":686,"մ":687,"յ":688,"ն":689,"շ":690,"ո":691,"չ":692,"պ":693,"ջ":694,"ռ":695,"ս":696,"վ":697,"տ":698,"ր":699,"ց":700,"ւ":701,"փ":702,"ք":703,"օ":704,"ֆ":705,"և":706,"։":707,"֊":708,"ְ":709,"ֱ":710,"ֲ":711,"ִ":712,"ֵ":713,"ֶ":714,"ַ":715,"ָ":716,"ֹ":717,"ּ":718,"־":719,"ׁ":720,"ׂ":721,"׃":722,"א":723,"ב":724,"ג":725,"ד":726,"ה":727,"ו":728,"ז":729,"ח":730,"ט":731,"י":732,"ך":733,"כ":734,"ל":735,"ם":736,"מ":737,"ן":738,"נ":739,"ס":740,"ע":741,"ף":742,"פ":743,"ץ":744,"צ":745,"ק":746,"ר":747,"ש":748,"ת":749,"׳":750,"״":751,"،":752,"؍":753,"ؒ":754,"؛":755,"؟":756,"ء":757,"آ":758,"أ":759,"ؤ":760,"إ":761,"ئ":762,"ا":763,"ب":764,"ة":765,"ت":766,"ث":767,"ج":768,"ح":769,"خ":770,"د":771,"ذ":772,"ر":773,"ز":774,"س":775,"ش":776,"ص":777,"ض":778,"ط":779,"ظ":780,"ع":781,"غ":782,"ـ":783,"ف":784,"ق":785,"ك":786,"ل":787,"م":788,"ن":789,"ه":790,"و":791,"ى":792,"ي":793,"ً":794,"ٌ":795,"ٍ":796,"َ":797,"ُ":798,"ِ":799,"ّ":800,"ْ":801,"ٔ":802,"ٛ":803,"٠":804,"١":805,"٢":806,"٣":807,"٤":808,"٥":809,"٩":810,"٪":811,"٫":812,"٬":813,"٭":814,"ٰ":815,"ٹ":816,"پ":817,"چ":818,"ڈ":819,"ڑ":820,"ژ":821,"ڤ":822,"ک":823,"ڭ":824,"گ":825,"ں":826,"ھ":827,"ۀ":828,"ہ":829,"ۂ":830,"ۃ":831,"ۆ":832,"ۇ":833,"ی":834,"ے":835,"ۓ":836,"۔":837,"۰":838,"۱":839,"۲":840,"۳":841,"۴":842,"۵":843,"۶":844,"۷":845,"۸":846,"۹":847,"ँ":848,"ं":849,"ः":850,"अ":851,"आ":852,"इ":853,"ई":854,"उ":855,"ऊ":856,"ऋ":857,"ऍ":858,"ऎ":859,"ए":860,"ऐ":861,"ऑ":862,"ओ":863,"औ":864,"क":865,"ख":866,"ग":867,"घ":868,"ङ":869,"च":870,"छ":871,"ज":872,"झ":873,"ञ":874,"ट":875,"ठ":876,"ड":877,"ढ":878,"ण":879,"त":880,"थ":881,"द":882,"ध":883,"न":884,"प":885,"फ":886,"ब":887,"भ":888,"म":889,"य":890,"र":891,"ऱ":892,"ल":893,"ळ":894,"व":895,"श":896,"ष":897,"स":898,"ह":899,"़":900,"ऽ":901,"ा":902,"ि":903,"ी":904,"ु":905,"ू":906,"ृ":907,"ॄ":908,"ॅ":909,"ॆ":910,"े":911,"ै":912,"ॉ":913,"ो":914,"ौ":915,"्":916,"ॐ":917,"॓":918,"ॠ":919,"।":920,"॥":921,"०":922,"१":923,"२":924,"३":925,"४":926,"५":927,"६":928,"७":929,"८":930,"९":931,"॰":932,"ॲ":933,"ঁ":934,"ং":935,"ঃ":936,"অ":937,"আ":938,"ই":939,"ঈ":940,"উ":941,"ঊ":942,"ঋ":943,"এ":944,"ঐ":945,"ও":946,"ঔ":947,"ক":948,"খ":949,"গ":950,"ঘ":951,"ঙ":952,"চ":953,"ছ":954,"জ":955,"ঝ":956,"ঞ":957,"ট":958,"ঠ":959,"ড":960,"ঢ":961,"ণ":962,"ত":963,"থ":964,"দ":965,"ধ":966,"ন":967,"প":968,"ফ":969,"ব":970,"ভ":971,"ম":972,"য":973,"র":974,"ল":975,"শ":976,"ষ":977,"স":978,"হ":979,"়":980,"া":981,"ি":982,"ী":983,"ু":984,"ূ":985,"ৃ":986,"ে":987,"ৈ":988,"ো":989,"ৌ":990,"্":991,"ৎ":992,"০":993,"১":994,"২":995,"৩":996,"৪":997,"৫":998,"৬":999,"৭":1000,"৮":1001,"৯":1002,"ৰ":1003,"ৱ":1004,"৷":1005,"ਂ":1006,"ਅ":1007,"ਆ":1008,"ਇ":1009,"ਈ":1010,"ਉ":1011,"ਊ":1012,"ਏ":1013,"ਐ":1014,"ਓ":1015,"ਔ":1016,"ਕ":1017,"ਖ":1018,"ਗ":1019,"ਘ":1020,"ਚ":1021,"ਛ":1022,"ਜ":1023,"ਝ":1024,"ਟ":1025,"ਠ":1026,"ਡ":1027,"ਢ":1028,"ਣ":1029,"ਤ":1030,"ਥ":1031,"ਦ":1032,"ਧ":1033,"ਨ":1034,"ਪ":1035,"ਫ":1036,"ਬ":1037,"ਭ":1038,"ਮ":1039,"ਯ":1040,"ਰ":1041,"ਲ":1042,"ਵ":1043,"ਸ":1044,"ਹ":1045,"਼":1046,"ਾ":1047,"ਿ":1048,"ੀ":1049,"ੁ":1050,"ੂ":1051,"ੇ":1052,"ੈ":1053,"ੋ":1054,"ੌ":1055,"੍":1056,"ੜ":1057,"੦":1058,"੧":1059,"੨":1060,"੩":1061,"੪":1062,"੫":1063,"ੰ":1064,"ੱ":1065,"ੲ":1066,"ੳ":1067,"ં":1068,"ઃ":1069,"અ":1070,"આ":1071,"ઇ":1072,"ઈ":1073,"ઉ":1074,"ઊ":1075,"ઋ":1076,"ઍ":1077,"એ":1078,"ઐ":1079,"ઑ":1080,"ઓ":1081,"ઔ":1082,"ક":1083,"ખ":1084,"ગ":1085,"ઘ":1086,"ચ":1087,"છ":1088,"જ":1089,"ઝ":1090,"ઞ":1091,"ટ":1092,"ઠ":1093,"ડ":1094,"ઢ":1095,"ણ":1096,"ત":1097,"થ":1098,"દ":1099,"ધ":1100,"ન":1101,"પ":1102,"ફ":1103,"બ":1104,"ભ":1105,"મ":1106,"ય":1107,"ર":1108,"લ":1109,"ળ":1110,"વ":1111,"શ":1112,"ષ":1113,"સ":1114,"હ":1115,"ા":1116,"િ":1117,"ી":1118,"ુ":1119,"ૂ":1120,"ૃ":1121,"ૅ":1122,"ે":1123,"ૈ":1124,"ૉ":1125,"ો":1126,"ૌ":1127,"્":1128,"૦":1129,"૧":1130,"૨":1131,"૩":1132,"૪":1133,"૫":1134,"૬":1135,"૭":1136,"૮":1137,"૯":1138,"ஃ":1139,"அ":1140,"ஆ":1141,"இ":1142,"ஈ":1143,"உ":1144,"ஊ":1145,"எ":1146,"ஏ":1147,"ஐ":1148,"ஒ":1149,"ஓ":1150,"ஔ":1151,"க":1152,"ங":1153,"ச":1154,"ஜ":1155,"ஞ":1156,"ட":1157,"ண":1158,"த":1159,"ந":1160,"ன":1161,"ப":1162,"ம":1163,"ய":1164,"ர":1165,"ற":1166,"ல":1167,"ள":1168,"ழ":1169,"வ":1170,"ஷ":1171,"ஸ":1172,"ஹ":1173,"ா":1174,"ி":1175,"ீ":1176,"ு":1177,"ூ":1178,"ெ":1179,"ே":1180,"ை":1181,"ொ":1182,"ோ":1183,"ௌ":1184,"்":1185,"ం":1186,"ః":1187,"అ":1188,"ఆ":1189,"ఇ":1190,"ఈ":1191,"ఉ":1192,"ఊ":1193,"ఋ":1194,"ఎ":1195,"ఏ":1196,"ఐ":1197,"ఒ":1198,"ఓ":1199,"ఔ":1200,"క":1201,"ఖ":1202,"గ":1203,"ఘ":1204,"చ":1205,"ఛ":1206,"జ":1207,"ఝ":1208,"ఞ":1209,"ట":1210,"ఠ":1211,"డ":1212,"ఢ":1213,"ణ":1214,"త":1215,"థ":1216,"ద":1217,"ధ":1218,"న":1219,"ప":1220,"ఫ":1221,"బ":1222,"భ":1223,"మ":1224,"య":1225,"ర":1226,"ఱ":1227,"ల":1228,"ళ":1229,"వ":1230,"శ":1231,"ష":1232,"స":1233,"హ":1234,"ా":1235,"ి":1236,"ీ":1237,"ు":1238,"ూ":1239,"ృ":1240,"ె":1241,"ే":1242,"ై":1243,"ొ":1244,"ో":1245,"ౌ":1246,"్":1247,"ಂ":1248,"ಃ":1249,"ಅ":1250,"ಆ":1251,"ಇ":1252,"ಈ":1253,"ಉ":1254,"ಊ":1255,"ಋ":1256,"ಎ":1257,"ಏ":1258,"ಐ":1259,"ಒ":1260,"ಓ":1261,"ಔ":1262,"ಕ":1263,"ಖ":1264,"ಗ":1265,"ಘ":1266,"ಚ":1267,"ಛ":1268,"ಜ":1269,"ಝ":1270,"ಞ":1271,"ಟ":1272,"ಠ":1273,"ಡ":1274,"ಢ":1275,"ಣ":1276,"ತ":1277,"ಥ":1278,"ದ":1279,"ಧ":1280,"ನ":1281,"ಪ":1282,"ಫ":1283,"ಬ":1284,"ಭ":1285,"ಮ":1286,"ಯ":1287,"ರ":1288,"ಲ":1289,"ಳ":1290,"ವ":1291,"ಶ":1292,"ಷ":1293,"ಸ":1294,"ಹ":1295,"ಾ":1296,"ಿ":1297,"ೀ":1298,"ು":1299,"ೂ":1300,"ೃ":1301,"ೆ":1302,"ೇ":1303,"ೈ":1304,"ೊ":1305,"ೋ":1306,"ೌ":1307,"್":1308,"೦":1309,"೧":1310,"೨":1311,"೩":1312,"೪":1313,"೫":1314,"೬":1315,"೭":1316,"೮":1317,"೯":1318,"ം":1319,"ഃ":1320,"അ":1321,"ആ":1322,"ഇ":1323,"ഈ":1324,"ഉ":1325,"ഊ":1326,"ഋ":1327,"എ":1328,"ഏ":1329,"ഐ":1330,"ഒ":1331,"ഓ":1332,"ഔ":1333,"ക":1334,"ഖ":1335,"ഗ":1336,"ഘ":1337,"ങ":1338,"ച":1339,"ഛ":1340,"ജ":1341,"ഞ":1342,"ട":1343,"ഠ":1344,"ഡ":1345,"ഢ":1346,"ണ":1347,"ത":1348,"ഥ":1349,"ദ":1350,"ധ":1351,"ന":1352,"പ":1353,"ഫ":1354,"ബ":1355,"ഭ":1356,"മ":1357,"യ":1358,"ര":1359,"റ":1360,"ല":1361,"ള":1362,"ഴ":1363,"വ":1364,"ശ":1365,"ഷ":1366,"സ":1367,"ഹ":1368,"ാ":1369,"ി":1370,"ീ":1371,"ു":1372,"ൂ":1373,"ൃ":1374,"െ":1375,"േ":1376,"ൈ":1377,"ൊ":1378,"ോ":1379,"ൌ":1380,"്":1381,"ൗ":1382,"൧":1383,"ൺ":1384,"ൻ":1385,"ർ":1386,"ൽ":1387,"ൾ":1388,"ක":1389,"ය":1390,"ර":1391,"ල":1392,"්":1393,"ා":1394,"ก":1395,"ข":1396,"ค":1397,"ฆ":1398,"ง":1399,"จ":1400,"ฉ":1401,"ช":1402,"ซ":1403,"ฌ":1404,"ญ":1405,"ฎ":1406,"ฏ":1407,"ฐ":1408,"ฑ":1409,"ฒ":1410,"ณ":1411,"ด":1412,"ต":1413,"ถ":1414,"ท":1415,"ธ":1416,"น":1417,"บ":1418,"ป":1419,"ผ":1420,"ฝ":1421,"พ":1422,"ฟ":1423,"ภ":1424,"ม":1425,"ย":1426,"ร":1427,"ฤ":1428,"ล":1429,"ว":1430,"ศ":1431,"ษ":1432,"ส":1433,"ห":1434,"ฬ":1435,"อ":1436,"ฮ":1437,"ฯ":1438,"ะ":1439,"ั":1440,"า":1441,"ำ":1442,"ิ":1443,"ี":1444,"ึ":1445,"ื":1446,"ุ":1447,"ู":1448,"ฺ":1449,"เ":1450,"แ":1451,"โ":1452,"ใ":1453,"ไ":1454,"ๆ":1455,"็":1456,"่":1457,"้":1458,"๊":1459,"๋":1460,"์":1461,"๐":1462,"๑":1463,"๒":1464,"๓":1465,"๔":1466,"๕":1467,"๖":1468,"๗":1469,"๘":1470,"๙":1471,"་":1472,"།":1473,"ག":1474,"ང":1475,"ཆ":1476,"ད":1477,"ན":1478,"པ":1479,"བ":1480,"མ":1481,"ཚ":1482,"ར":1483,"ལ":1484,"ས":1485,"ི":1486,"ེ":1487,"ོ":1488,"ྒ":1489,"ྫ":1490,"ྱ":1491,"က":1492,"ခ":1493,"ဂ":1494,"ဃ":1495,"င":1496,"စ":1497,"ဆ":1498,"ဇ":1499,"ဈ":1500,"ဉ":1501,"ည":1502,"ဋ":1503,"ဌ":1504,"ဍ":1505,"ဏ":1506,"တ":1507,"ထ":1508,"ဒ":1509,"ဓ":1510,"န":1511,"ပ":1512,"ဖ":1513,"ဗ":1514,"ဘ":1515,"မ":1516,"ယ":1517,"ရ":1518,"လ":1519,"ဝ":1520,"သ":1521,"ဟ":1522,"ဠ":1523,"အ":1524,"ဤ":1525,"ဥ":1526,"ဦ":1527,"ဧ":1528,"ဩ":1529,"ါ":1530,"ာ":1531,"ိ":1532,"ီ":1533,"ု":1534,"ူ":1535,"ေ":1536,"ဲ":1537,"ံ":1538,"့":1539,"း":1540,"္":1541,"်":1542,"ျ":1543,"ြ":1544,"ွ":1545,"ှ":1546,"ဿ":1547,"၀":1548,"၁":1549,"၂":1550,"၃":1551,"၄":1552,"၅":1553,"၆":1554,"၇":1555,"၈":1556,"၉":1557,"၊":1558,"။":1559,"၌":1560,"၍":1561,"၎":1562,"၏":1563,"ა":1564,"ბ":1565,"გ":1566,"დ":1567,"ე":1568,"ვ":1569,"ზ":1570,"თ":1571,"ი":1572,"კ":1573,"ლ":1574,"მ":1575,"ნ":1576,"ო":1577,"პ":1578,"ჟ":1579,"რ":1580,"ს":1581,"ტ":1582,"უ":1583,"ფ":1584,"ქ":1585,"ღ":1586,"ყ":1587,"შ":1588,"ჩ":1589,"ც":1590,"ძ":1591,"წ":1592,"ჭ":1593,"ხ":1594,"ჯ":1595,"ჰ":1596,"ჲ":1597,"ᠢ":1598,"ᠨ":1599,"ᴬ":1600,"ᴮ":1601,"ᴰ":1602,"ᴵ":1603,"ᴾ":1604,"ᵀ":1605,"ᵃ":1606,"ᵇ":1607,"ᵈ":1608,"ᵉ":1609,"ᵍ":1610,"ᵏ":1611,"ᵐ":1612,"ᵒ":1613,"ᵖ":1614,"ᵗ":1615,"ᵘ":1616,"ᵛ":1617,"ᵢ":1618,"ᵣ":1619,"ᵤ":1620,"ᶜ":1621,"ᶠ":1622,"ḍ":1623,"ḏ":1624,"Ḑ":1625,"ḑ":1626,"Ḥ":1627,"ḥ":1628,"Ḩ":1629,"ḩ":1630,"Ḫ":1631,"ḫ":1632,"ḷ":1633,"ṃ":1634,"ṇ":1635,"ṛ":1636,"ṟ":1637,"Ṣ":1638,"ṣ":1639,"Ṭ":1640,"ṭ":1641,"ṯ":1642,"ẕ":1643,"ạ":1644,"Ả":1645,"ả":1646,"Ấ":1647,"ấ":1648,"ầ":1649,"Ẩ":1650,"ẩ":1651,"ẫ":1652,"ậ":1653,"ắ":1654,"ằ":1655,"ẳ":1656,"ẵ":1657,"ặ":1658,"Ẹ":1659,"ẹ":1660,"ẻ":1661,"ẽ":1662,"ế":1663,"ề":1664,"ể":1665,"ễ":1666,"ệ":1667,"ỉ":1668,"ị":1669,"Ọ":1670,"ọ":1671,"ỏ":1672,"Ố":1673,"ố":1674,"ồ":1675,"ổ":1676,"ỗ":1677,"ộ":1678,"ớ":1679,"ờ":1680,"Ở":1681,"ở":1682,"ỡ":1683,"ợ":1684,"ụ":1685,"Ủ":1686,"ủ":1687,"Ứ":1688,"ứ":1689,"ừ":1690,"ử":1691,"ữ":1692,"ự":1693,"ỳ":1694,"ỵ":1695,"ỷ":1696,"ỹ":1697,"ἀ":1698,"ἄ":1699,"Ἀ":1700,"ἐ":1701,"ἡ":1702,"ἢ":1703,"ἰ":1704,"ἱ":1705,"ἶ":1706,"ὁ":1707,"ὅ":1708,"ὐ":1709,"ὡ":1710,"ὰ":1711,"ὲ":1712,"ὴ":1713,"ὶ":1714,"ὸ":1715,"ὺ":1716,"ῆ":1717,"ῇ":1718,"ῖ":1719,"ῦ":1720,"ῶ":1721,"ῷ":1722,"‖":1723,"‚":1724,"„":1725,"‟":1726,"†":1727,"‡":1728,"•":1729,"․":1730,"‥":1731,"‧":1732,"‰":1733,"′":1734,"″":1735,"‹":1736,"›":1737,"※":1738,"‿":1739,"⁄":1740,"⁰":1741,"ⁱ":1742,"⁴":1743,"⁵":1744,"⁶":1745,"⁷":1746,"⁸":1747,"⁹":1748,"⁺":1749,"⁻":1750,"⁾":1751,"ⁿ":1752,"₀":1753,"₁":1754,"₂":1755,"₃":1756,"₄":1757,"₅":1758,"₆":1759,"₇":1760,"₈":1761,"₍":1762,"₎":1763,"ₐ":1764,"ₑ":1765,"ₒ":1766,"ₓ":1767,"ₖ":1768,"ₘ":1769,"ₙ":1770,"ₚ":1771,"ₛ":1772,"ₜ":1773,"₤":1774,"€":1775,"₹":1776,"℃":1777,"ℓ":1778,"№":1779,"ℝ":1780,"™":1781,"ℤ":1782,"⅓":1783,"⅔":1784,"Ⅰ":1785,"Ⅱ":1786,"Ⅲ":1787,"Ⅳ":1788,"←":1789,"↑":1790,"→":1791,"↓":1792,"↔":1793,"↺":1794,"⇄":1795,"⇌":1796,"⇒":1797,"⇔":1798,"∀":1799,"∅":1800,"∇":1801,"∈":1802,"−":1803,"∗":1804,"∘":1805,"∙":1806,"√":1807,"∞":1808,"∧":1809,"∨":1810,"∩":1811,"∪":1812,"∫":1813,"∼":1814,"≈":1815,"≠":1816,"≡":1817,"≤":1818,"≥":1819,"≪":1820,"≫":1821,"⊂":1822,"⊆":1823,"⊕":1824,"⊗":1825,"⊙":1826,"⋅":1827,"⋯":1828,"〈":1829,"〉":1830,"①":1831,"②":1832,"③":1833,"④":1834,"⑤":1835,"─":1836,"━":1837,"│":1838,"┃":1839,"┓":1840,"└":1841,"├":1842,"┣":1843,"┫":1844,"║":1845,"█":1846,"■":1847,"□":1848,"▪":1849,"▭":1850,"▲":1851,"△":1852,"►":1853,"▼":1854,"◆":1855,"◇":1856,"○":1857,"◎":1858,"●":1859,"◡":1860,"★":1861,"☆":1862,"☉":1863,"♀":1864,"♂":1865,"♕":1866,"♙":1867,"♠":1868,"♡":1869,"♣":1870,"♥":1871,"♦":1872,"♪":1873,"♭":1874,"♯":1875,"⚭":1876,"✝":1877,"⟨":1878,"⟩":1879,"ⱼ":1880,"、":1881,"。":1882,"〃":1883,"々":1884,"〇":1885,"〈":1886,"〉":1887,"《":1888,"》":1889,"「":1890,"」":1891,"『":1892,"』":1893,"【":1894,"】":1895,"〒":1896,"〔":1897,"〕":1898,"〖":1899,"〗":1900,"〜":1901,"〝":1902,"ぁ":1903,"あ":1904,"ぃ":1905,"い":1906,"う":1907,"ぇ":1908,"え":1909,"お":1910,"か":1911,"が":1912,"き":1913,"ぎ":1914,"く":1915,"ぐ":1916,"け":1917,"げ":1918,"こ":1919,"ご":1920,"さ":1921,"ざ":1922,"し":1923,"じ":1924,"す":1925,"ず":1926,"せ":1927,"ぜ":1928,"そ":1929,"ぞ":1930,"た":1931,"だ":1932,"ち":1933,"ぢ":1934,"っ":1935,"つ":1936,"づ":1937,"て":1938,"で":1939,"と":1940,"ど":1941,"な":1942,"に":1943,"ぬ":1944,"ね":1945,"の":1946,"は":1947,"ば":1948,"ぱ":1949,"ひ":1950,"び":1951,"ぴ":1952,"ふ":1953,"ぶ":1954,"ぷ":1955,"へ":1956,"べ":1957,"ぺ":1958,"ほ":1959,"ぼ":1960,"ぽ":1961,"ま":1962,"み":1963,"む":1964,"め":1965,"も":1966,"ゃ":1967,"や":1968,"ゅ":1969,"ゆ":1970,"ょ":1971,"よ":1972,"ら":1973,"り":1974,"る":1975,"れ":1976,"ろ":1977,"わ":1978,"ゐ":1979,"を":1980,"ん":1981,"ゝ":1982,"ゞ":1983,"ァ":1984,"ア":1985,"ィ":1986,"イ":1987,"ゥ":1988,"ウ":1989,"ェ":1990,"エ":1991,"ォ":1992,"オ":1993,"カ":1994,"ガ":1995,"キ":1996,"ギ":1997,"ク":1998,"グ":1999,"ケ":2000,"ゲ":2001,"コ":2002,"ゴ":2003,"サ":2004,"ザ":2005,"シ":2006,"ジ":2007,"ス":2008,"ズ":2009,"セ":2010,"ゼ":2011,"ソ":2012,"ゾ":2013,"タ":2014,"ダ":2015,"チ":2016,"ヂ":2017,"ッ":2018,"ツ":2019,"ヅ":2020,"テ":2021,"デ":2022,"ト":2023,"ド":2024,"ナ":2025,"ニ":2026,"ヌ":2027,"ネ":2028,"ノ":2029,"ハ":2030,"バ":2031,"パ":2032,"ヒ":2033,"ビ":2034,"ピ":2035,"フ":2036,"ブ":2037,"プ":2038,"ヘ":2039,"ベ":2040,"ペ":2041,"ホ":2042,"ボ":2043,"ポ":2044,"マ":2045,"ミ":2046,"ム":2047,"メ":2048,"モ":2049,"ャ":2050,"ヤ":2051,"ュ":2052,"ユ":2053,"ョ":2054,"ヨ":2055,"ラ":2056,"リ":2057,"ル":2058,"レ":2059,"ロ":2060,"ワ":2061,"ヱ":2062,"ヲ":2063,"ン":2064,"ヴ":2065,"ヵ":2066,"ヶ":2067,"・":2068,"ー":2069,"ㆍ":2070,"䲁":2071,"一":2072,"丁":2073,"七":2074,"万":2075,"丈":2076,"三":2077,"上":2078,"下":2079,"不":2080,"与":2081,"丐":2082,"丑":2083,"专":2084,"且":2085,"丕":2086,"世":2087,"丘":2088,"丙":2089,"业":2090,"丛":2091,"东":2092,"丝":2093,"丞":2094,"丟":2095,"両":2096,"丢":2097,"两":2098,"严":2099,"並":2100,"丧":2101,"个":2102,"丫":2103,"中":2104,"丰":2105,"串":2106,"临":2107,"丸":2108,"丹":2109,"为":2110,"主":2111,"丼":2112,"丽":2113,"举":2114,"乂":2115,"乃":2116,"久":2117,"么":2118,"义":2119,"之":2120,"乌":2121,"乍":2122,"乎":2123,"乏":2124,"乐":2125,"乒":2126,"乓":2127,"乔":2128,"乖":2129,"乗":2130,"乘":2131,"乙":2132,"九":2133,"乞":2134,"也":2135,"习":2136,"乡":2137,"书":2138,"乩":2139,"买":2140,"乱":2141,"乳":2142,"乾":2143,"亀":2144,"亂":2145,"了":2146,"予":2147,"争":2148,"事":2149,"二":2150,"于":2151,"亏":2152,"云":2153,"互":2154,"五":2155,"井":2156,"亘":2157,"亚":2158,"些":2159,"亜":2160,"亞":2161,"亟":2162,"亡":2163,"亢":2164,"交":2165,"亥":2166,"亦":2167,"产":2168,"亨":2169,"亩":2170,"享":2171,"京":2172,"亭":2173,"亮":2174,"亲":2175,"亳":2176,"亵":2177,"亶":2178,"人":2179,"亿":2180,"什":2181,"仁":2182,"仄":2183,"仅":2184,"仆":2185,"仇":2186,"今":2187,"介":2188,"仍":2189,"从":2190,"仏":2191,"仑":2192,"仓":2193,"仔":2194,"仕":2195,"他":2196,"仗":2197,"付":2198,"仙":2199,"仝":2200,"仡":2201,"代":2202,"令":2203,"以":2204,"仪":2205,"们":2206,"仮":2207,"仰":2208,"仲":2209,"件":2210,"价":2211,"任":2212,"份":2213,"仿":2214,"企":2215,"伉":2216,"伊":2217,"伍":2218,"伎":2219,"伏":2220,"伐":2221,"休":2222,"众":2223,"优":2224,"伙":2225,"会":2226,"伝":2227,"伞":2228,"伟":2229,"传":2230,"伤":2231,"伦":2232,"伪":2233,"伯":2234,"估":2235,"伴":2236,"伶":2237,"伸":2238,"伺":2239,"似":2240,"伽":2241,"佃":2242,"但":2243,"佇":2244,"佈":2245,"位":2246,"低":2247,"住":2248,"佐":2249,"佑":2250,"体":2251,"佔":2252,"何":2253,"佗":2254,"佘":2255,"余":2256,"佚":2257,"佛":2258,"作":2259,"佞":2260,"佟":2261,"你":2262,"佢":2263,"佣":2264,"佤":2265,"佥":2266,"佩":2267,"佬":2268,"佯":2269,"佰":2270,"佳":2271,"併":2272,"佶":2273,"佼":2274,"使":2275,"侃":2276,"侄":2277,"來":2278,"侈":2279,"例":2280,"侍":2281,"侏":2282,"侑":2283,"侖":2284,"侗":2285,"供":2286,"依":2287,"侠":2288,"価":2289,"侣":2290,"侦":2291,"侧":2292,"侨":2293,"侬":2294,"侮":2295,"侯":2296,"侵":2297,"侶":2298,"便":2299,"俁":2300,"係":2301,"促":2302,"俄":2303,"俊":2304,"俎":2305,"俏":2306,"俐":2307,"俑":2308,"俗":2309,"俘":2310,"俚":2311,"保":2312,"俞":2313,"俟":2314,"俠":2315,"信":2316,"俣":2317,"俨":2318,"俩":2319,"俪":2320,"俭":2321,"修":2322,"俯":2323,"俱":2324,"俳":2325,"俵":2326,"俶":2327,"俸":2328,"俺":2329,"俾":2330,"倆":2331,"倉":2332,"個":2333,"倍":2334,"們":2335,"倒":2336,"倖":2337,"倘":2338,"候":2339,"倚":2340,"借":2341,"倡":2342,"倣":2343,"値":2344,"倦":2345,"倩":2346,"倪":2347,"倫":2348,"倬":2349,"倭":2350,"倶":2351,"倹":2352,"债":2353,"倻":2354,"值":2355,"倾":2356,"偃":2357,"假":2358,"偈":2359,"偉":2360,"偏":2361,"偕":2362,"做":2363,"停":2364,"健":2365,"偲":2366,"側":2367,"偵":2368,"偶":2369,"偷":2370,"偽":2371,"偿":2372,"傀":2373,"傅":2374,"傈":2375,"傍":2376,"傑":2377,"傕":2378,"傘":2379,"備":2380,"傢":2381,"傣":2382,"储":2383,"催":2384,"傭":2385,"傲":2386,"傳":2387,"債":2388,"傷":2389,"傻":2390,"傾":2391,"僅":2392,"僉":2393,"働":2394,"像":2395,"僑":2396,"僕":2397,"僖":2398,"僚":2399,"僧":2400,"僭":2401,"僮":2402,"僱":2403,"僳":2404,"僵":2405,"價":2406,"僻":2407,"儀":2408,"儁":2409,"儂":2410,"億":2411,"儉":2412,"儋":2413,"儒":2414,"儘":2415,"儚":2416,"償":2417,"儡":2418,"優":2419,"儲":2420,"儷":2421,"儼":2422,"儿":2423,"兀":2424,"允":2425,"元":2426,"兄":2427,"充":2428,"兆":2429,"兇":2430,"先":2431,"光":2432,"克":2433,"兌":2434,"免":2435,"兎":2436,"児":2437,"兑":2438,"兒":2439,"兔":2440,"兖":2441,"兗":2442,"党":2443,"兜":2444,"兢":2445,"入":2446,"內":2447,"全":2448,"兩":2449,"兪":2450,"八":2451,"公":2452,"六":2453,"兮":2454,"兰":2455,"共":2456,"关":2457,"兴":2458,"兵":2459,"其":2460,"具":2461,"典":2462,"兹":2463,"养":2464,"兼":2465,"兽":2466,"冀":2467,"内":2468,"円":2469,"冇":2470,"冈":2471,"冉":2472,"冊":2473,"册":2474,"再":2475,"冏":2476,"冑":2477,"冒":2478,"冕":2479,"冗":2480,"写":2481,"军":2482,"农":2483,"冠":2484,"冢":2485,"冤":2486,"冥":2487,"冨":2488,"冪":2489,"冬":2490,"冯":2491,"冰":2492,"冲":2493,"决":2494,"冴":2495,"况":2496,"冶":2497,"冷":2498,"冻":2499,"冼":2500,"净":2501,"凄":2502,"准":2503,"凉":2504,"凋":2505,"凌":2506,"凍":2507,"减":2508,"凑":2509,"凛":2510,"凜":2511,"凝":2512,"几":2513,"凡":2514,"凤":2515,"処":2516,"凧":2517,"凪":2518,"凭":2519,"凯":2520,"凰":2521,"凱":2522,"凳":2523,"凶":2524,"凸":2525,"凹":2526,"出":2527,"击":2528,"函":2529,"凿":2530,"刀":2531,"刁":2532,"刃":2533,"分":2534,"切":2535,"刈":2536,"刊":2537,"刍":2538,"刎":2539,"刑":2540,"划":2541,"列":2542,"刘":2543,"则":2544,"刚":2545,"创":2546,"初":2547,"删":2548,"判":2549,"別":2550,"利":2551,"刪":2552,"别":2553,"刮":2554,"到":2555,"制":2556,"刷":2557,"券":2558,"刹":2559,"刺":2560,"刻":2561,"剂":2562,"剃":2563,"則":2564,"削":2565,"剋":2566,"剌":2567,"前":2568,"剎":2569,"剑":2570,"剔":2571,"剖":2572,"剛":2573,"剝":2574,"剣":2575,"剤":2576,"剥":2577,"剧":2578,"剩":2579,"剪":2580,"副":2581,"剰":2582,"割":2583,"創":2584,"剷":2585,"剽":2586,"剿":2587,"劃":2588,"劇":2589,"劈":2590,"劉":2591,"劍":2592,"劑":2593,"力":2594,"劝":2595,"办":2596,"功":2597,"加":2598,"务":2599,"劣":2600,"动":2601,"助":2602,"努":2603,"劫":2604,"劭":2605,"励":2606,"劲":2607,"劳":2608,"労":2609,"効":2610,"劾":2611,"势":2612,"勁":2613,"勃":2614,"勅":2615,"勇":2616,"勉":2617,"勋":2618,"勐":2619,"勒":2620,"動":2621,"勖":2622,"勗":2623,"勘":2624,"務":2625,"勛":2626,"勝":2627,"勞":2628,"募":2629,"勢":2630,"勤":2631,"勧":2632,"勲":2633,"勳":2634,"勵":2635,"勸":2636,"勺":2637,"勻":2638,"勾":2639,"勿":2640,"匀":2641,"匂":2642,"包":2643,"匆":2644,"匈":2645,"匍":2646,"匐":2647,"匕":2648,"化":2649,"北":2650,"匙":2651,"匝":2652,"匠":2653,"匡":2654,"匣":2655,"匪":2656,"匮":2657,"匯":2658,"匱":2659,"匹":2660,"区":2661,"医":2662,"匾":2663,"匿":2664,"區":2665,"十":2666,"千":2667,"卅":2668,"升":2669,"午":2670,"卉":2671,"半":2672,"卍":2673,"华":2674,"协":2675,"卑":2676,"卒":2677,"卓":2678,"協":2679,"单":2680,"卖":2681,"南":2682,"単":2683,"博":2684,"卜":2685,"卞":2686,"占":2687,"卡":2688,"卢":2689,"卤":2690,"卦":2691,"卧":2692,"卫":2693,"卯":2694,"印":2695,"危":2696,"即":2697,"却":2698,"卵":2699,"卷":2700,"卸":2701,"卻":2702,"卿":2703,"厂":2704,"厄":2705,"厅":2706,"历":2707,"厉":2708,"压":2709,"厌":2710,"厕":2711,"厘":2712,"厚":2713,"厝":2714,"原":2715,"厢":2716,"厥":2717,"厦":2718,"厨":2719,"厩":2720,"厭":2721,"厲":2722,"厳":2723,"去":2724,"县":2725,"参":2726,"參":2727,"又":2728,"叉":2729,"及":2730,"友":2731,"双":2732,"反":2733,"収":2734,"发":2735,"叔":2736,"取":2737,"受":2738,"变":2739,"叙":2740,"叛":2741,"叟":2742,"叠":2743,"叡":2744,"叢":2745,"口":2746,"古":2747,"句":2748,"另":2749,"叩":2750,"只":2751,"叫":2752,"召":2753,"叭":2754,"叮":2755,"可":2756,"台":2757,"叱":2758,"史":2759,"右":2760,"叶":2761,"号":2762,"司":2763,"叹":2764,"叻":2765,"吁":2766,"吃":2767,"各":2768,"合":2769,"吉":2770,"吊":2771,"吋":2772,"同":2773,"名":2774,"后":2775,"吏":2776,"吐":2777,"向":2778,"吒":2779,"吓":2780,"吕":2781,"吗":2782,"君":2783,"吝":2784,"吞":2785,"吟":2786,"吠":2787,"吡":2788,"否":2789,"吧":2790,"吨":2791,"吩":2792,"含":2793,"听":2794,"启":2795,"吳":2796,"吴":2797,"吵":2798,"吶":2799,"吸":2800,"吹":2801,"吻":2802,"吼":2803,"吾":2804,"呀":2805,"呂":2806,"呆":2807,"呈":2808,"呉":2809,"告":2810,"呋":2811,"呎":2812,"呐":2813,"呑":2814,"呕":2815,"员":2816,"呛":2817,"呜":2818,"呟":2819,"呢":2820,"呤":2821,"周":2822,"呪":2823,"味":2824,"呵":2825,"呼":2826,"命":2827,"咀":2828,"咁":2829,"咄":2830,"咆":2831,"咋":2832,"和":2833,"咎":2834,"咏":2835,"咐":2836,"咒":2837,"咕":2838,"咖":2839,"咤":2840,"咥":2841,"咨":2842,"咩":2843,"咪":2844,"咫":2845,"咬":2846,"咯":2847,"咱":2848,"咲":2849,"咳":2850,"咸":2851,"咽":2852,"哀":2853,"品":2854,"哄":2855,"哆":2856,"哇":2857,"哈":2858,"哉":2859,"哌":2860,"响":2861,"哑":2862,"哗":2863,"員":2864,"哥":2865,"哦":2866,"哨":2867,"哩":2868,"哪":2869,"哭":2870,"哮":2871,"哲":2872,"哺":2873,"哼":2874,"唁":2875,"唄":2876,"唆":2877,"唇":2878,"唐":2879,"唑":2880,"唔":2881,"唖":2882,"唤":2883,"售":2884,"唯":2885,"唱":2886,"唸":2887,"唾":2888,"啄":2889,"商":2890,"啉":2891,"啊":2892,"問":2893,"啓":2894,"啖":2895,"啜":2896,"啞":2897,"啟":2898,"啡":2899,"啤":2900,"啦":2901,"啮":2902,"啰":2903,"啶":2904,"啸":2905,"啼":2906,"啾":2907,"喀":2908,"喂":2909,"喃":2910,"善":2911,"喆":2912,"喇":2913,"喉":2914,"喊":2915,"喋":2916,"喔":2917,"喘":2918,"喙":2919,"喚":2920,"喜":2921,"喝":2922,"喧":2923,"喩":2924,"喪":2925,"喫":2926,"喬":2927,"單":2928,"喰":2929,"喱":2930,"喵":2931,"営":2932,"喷":2933,"喻":2934,"嗅":2935,"嗎":2936,"嗓":2937,"嗚":2938,"嗜":2939,"嗟":2940,"嗣":2941,"嗪":2942,"嗽":2943,"嘅":2944,"嘆":2945,"嘉":2946,"嘌":2947,"嘎":2948,"嘔":2949,"嘗":2950,"嘘":2951,"嘛":2952,"嘟":2953,"嘢":2954,"嘧":2955,"嘩":2956,"嘯":2957,"嘱":2958,"嘲":2959,"嘴":2960,"嘶":2961,"嘻":2962,"嘿":2963,"噁":2964,"噂":2965,"噌":2966,"噗":2967,"噛":2968,"噜":2969,"器":2970,"噩":2971,"噪":2972,"噬":2973,"噴":2974,"噶":2975,"噸":2976,"噹":2977,"噺":2978,"噻":2979,"嚆":2980,"嚇":2981,"嚎":2982,"嚕":2983,"嚢":2984,"嚣":2985,"嚮":2986,"嚴":2987,"嚼":2988,"囁":2989,"囂":2990,"囃":2991,"囉":2992,"囊":2993,"囍":2994,"囑":2995,"囗":2996,"囚":2997,"四":2998,"回":2999,"因":3000,"团":3001,"団":3002,"囤":3003,"囧":3004,"囪":3005,"园":3006,"囮":3007,"困":3008,"囱":3009,"囲":3010,"図":3011,"围":3012,"固":3013,"国":3014,"图":3015,"圀":3016,"圃":3017,"圆":3018,"圈":3019,"國":3020,"圍":3021,"圏":3022,"園":3023,"圓":3024,"圖":3025,"團":3026,"圜":3027,"土":3028,"圣":3029,"圧":3030,"在":3031,"圩":3032,"圪":3033,"圭":3034,"地":3035,"圳":3036,"场":3037,"圻":3038,"圾":3039,"址":3040,"坂":3041,"均":3042,"坊":3043,"坍":3044,"坎":3045,"坏":3046,"坐":3047,"坑":3048,"块":3049,"坚":3050,"坛":3051,"坜":3052,"坝":3053,"坞":3054,"坟":3055,"坠":3056,"坡":3057,"坤":3058,"坦":3059,"坨":3060,"坪":3061,"坳":3062,"坵":3063,"坷":3064,"垂":3065,"垃":3066,"垄":3067,"垅":3068,"型":3069,"垌":3070,"垒":3071,"垓":3072,"垛":3073,"垟":3074,"垠":3075,"垢":3076,"垣":3077,"垦":3078,"垩":3079,"垫":3080,"垭":3081,"垮":3082,"垸":3083,"埃":3084,"埋":3085,"城":3086,"埔":3087,"埕":3088,"埗":3089,"埜":3090,"域":3091,"埠":3092,"埡":3093,"埤":3094,"埭":3095,"埴":3096,"執":3097,"培":3098,"基":3099,"埼":3100,"堀":3101,"堂":3102,"堃":3103,"堅":3104,"堆":3105,"堇":3106,"堊":3107,"堑":3108,"堕":3109,"堡":3110,"堤":3111,"堪":3112,"堯":3113,"堰":3114,"報":3115,"場":3116,"堵":3117,"堺":3118,"塀":3119,"塁":3120,"塊":3121,"塌":3122,"塑":3123,"塔":3124,"塗":3125,"塘":3126,"塙":3127,"塚":3128,"塞":3129,"塢":3130,"塩":3131,"填":3132,"塬":3133,"塭":3134,"塵":3135,"塹":3136,"塾":3137,"墀":3138,"境":3139,"墅":3140,"墉":3141,"墊":3142,"墓":3143,"増":3144,"墘":3145,"墙":3146,"墜":3147,"增":3148,"墟":3149,"墨":3150,"墩":3151,"墮":3152,"墳":3153,"墾":3154,"壁":3155,"壇":3156,"壊":3157,"壌":3158,"壑":3159,"壓":3160,"壕":3161,"壘":3162,"壞":3163,"壟":3164,"壠":3165,"壢":3166,"壤":3167,"壩":3168,"士":3169,"壬":3170,"壮":3171,"壯":3172,"声":3173,"壱":3174,"売":3175,"壳":3176,"壶":3177,"壷":3178,"壹":3179,"壺":3180,"壽":3181,"处":3182,"备":3183,"変":3184,"复":3185,"夏":3186,"夔":3187,"夕":3188,"外":3189,"夙":3190,"多":3191,"夜":3192,"够":3193,"夠":3194,"夢":3195,"夥":3196,"大":3197,"天":3198,"太":3199,"夫":3200,"夭":3201,"央":3202,"夯":3203,"失":3204,"头":3205,"夷":3206,"夸":3207,"夹":3208,"夺":3209,"夾":3210,"奄":3211,"奇":3212,"奈":3213,"奉":3214,"奋":3215,"奎":3216,"奏":3217,"奐":3218,"契":3219,"奔":3220,"奕":3221,"奖":3222,"套":3223,"奘":3224,"奚":3225,"奠":3226,"奢":3227,"奥":3228,"奧":3229,"奨":3230,"奪":3231,"奬":3232,"奭":3233,"奮":3234,"女":3235,"奴":3236,"奶":3237,"奸":3238,"她":3239,"好":3240,"如":3241,"妃":3242,"妄":3243,"妆":3244,"妇":3245,"妈":3246,"妊":3247,"妍":3248,"妒":3249,"妓":3250,"妖":3251,"妙":3252,"妝":3253,"妞":3254,"妤":3255,"妥":3256,"妨":3257,"妬":3258,"妮":3259,"妲":3260,"妳":3261,"妹":3262,"妻":3263,"妾":3264,"姆":3265,"姉":3266,"姊":3267,"始":3268,"姍":3269,"姐":3270,"姑":3271,"姓":3272,"委":3273,"姗":3274,"姚":3275,"姜":3276,"姝":3277,"姥":3278,"姦":3279,"姨":3280,"姪":3281,"姫":3282,"姬":3283,"姶":3284,"姻":3285,"姿":3286,"威":3287,"娃":3288,"娄":3289,"娅":3290,"娇":3291,"娑":3292,"娘":3293,"娛":3294,"娜":3295,"娟":3296,"娠":3297,"娣":3298,"娥":3299,"娩":3300,"娯":3301,"娱":3302,"娴":3303,"娶":3304,"娼":3305,"婁":3306,"婆":3307,"婉":3308,"婕":3309,"婚":3310,"婢":3311,"婦":3312,"婧":3313,"婪":3314,"婭":3315,"婴":3316,"婶":3317,"婷":3318,"婺":3319,"婿":3320,"媒":3321,"媚":3322,"媛":3323,"媲":3324,"媳":3325,"媽":3326,"嫁":3327,"嫂":3328,"嫉":3329,"嫌":3330,"嫔":3331,"嫖":3332,"嫡":3333,"嫣":3334,"嫦":3335,"嫩":3336,"嫻":3337,"嬅":3338,"嬉":3339,"嬌":3340,"嬢":3341,"嬤":3342,"嬪":3343,"嬬":3344,"嬰":3345,"嬴":3346,"嬷":3347,"嬸":3348,"孀":3349,"子":3350,"孔":3351,"孕":3352,"孖":3353,"字":3354,"存":3355,"孙":3356,"孚":3357,"孛":3358,"孜":3359,"孝":3360,"孟":3361,"孢":3362,"季":3363,"孤":3364,"学":3365,"孩":3366,"孫":3367,"孰":3368,"孵":3369,"學":3370,"孺":3371,"孽":3372,"宁":3373,"它":3374,"宅":3375,"宇":3376,"守":3377,"安":3378,"宋":3379,"完":3380,"宍":3381,"宏":3382,"宓":3383,"宕":3384,"宗":3385,"官":3386,"宙":3387,"定":3388,"宛":3389,"宜":3390,"宝":3391,"实":3392,"実":3393,"宠":3394,"审":3395,"客":3396,"宣":3397,"室":3398,"宥":3399,"宦":3400,"宪":3401,"宫":3402,"宮":3403,"宰":3404,"害":3405,"宴":3406,"宵":3407,"家":3408,"宸":3409,"容":3410,"宽":3411,"宾":3412,"宿":3413,"寂":3414,"寄":3415,"寅":3416,"密":3417,"寇":3418,"富":3419,"寐":3420,"寒":3421,"寓":3422,"寔":3423,"寛":3424,"寝":3425,"寞":3426,"察":3427,"寡":3428,"寢":3429,"寥":3430,"實":3431,"寧":3432,"寨":3433,"審":3434,"寫":3435,"寬":3436,"寮":3437,"寰":3438,"寵":3439,"寶":3440,"寸":3441,"对":3442,"寺":3443,"寻":3444,"导":3445,"対":3446,"寿":3447,"封":3448,"専":3449,"射":3450,"将":3451,"將":3452,"專":3453,"尉":3454,"尊":3455,"尋":3456,"對":3457,"導":3458,"小":3459,"少":3460,"尔":3461,"尕":3462,"尖":3463,"尘":3464,"尙":3465,"尚":3466,"尝":3467,"尤":3468,"尧":3469,"尬":3470,"尭":3471,"就":3472,"尴":3473,"尷":3474,"尸":3475,"尹":3476,"尺":3477,"尻":3478,"尼":3479,"尽":3480,"尾":3481,"尿":3482,"局":3483,"屁":3484,"层":3485,"居":3486,"屆":3487,"屈":3488,"届":3489,"屋":3490,"屍":3491,"屎":3492,"屏":3493,"屑":3494,"展":3495,"属":3496,"屠":3497,"屡":3498,"屢":3499,"層":3500,"履":3501,"屬":3502,"屯":3503,"山":3504,"屹":3505,"屿":3506,"岁":3507,"岂":3508,"岌":3509,"岐":3510,"岑":3511,"岔":3512,"岖":3513,"岗":3514,"岘":3515,"岙":3516,"岚":3517,"岛":3518,"岡":3519,"岩":3520,"岫":3521,"岬":3522,"岭":3523,"岱":3524,"岳":3525,"岷":3526,"岸":3527,"峁":3528,"峇":3529,"峒":3530,"峙":3531,"峠":3532,"峡":3533,"峦":3534,"峨":3535,"峪":3536,"峭":3537,"峯":3538,"峰":3539,"峴":3540,"島":3541,"峻":3542,"峽":3543,"崁":3544,"崇":3545,"崎":3546,"崑":3547,"崔":3548,"崖":3549,"崗":3550,"崙":3551,"崛":3552,"崧":3553,"崩":3554,"崭":3555,"崴":3556,"嵇":3557,"嵊":3558,"嵋":3559,"嵌":3560,"嵐":3561,"嵜":3562,"嵩":3563,"嵯":3564,"嶄":3565,"嶇":3566,"嶋":3567,"嶠":3568,"嶷":3569,"嶺":3570,"嶼":3571,"嶽":3572,"巅":3573,"巌":3574,"巍":3575,"巒":3576,"巔":3577,"巖":3578,"川":3579,"州":3580,"巡":3581,"巢":3582,"巣":3583,"工":3584,"左":3585,"巧":3586,"巨":3587,"巩":3588,"巫":3589,"差":3590,"己":3591,"已":3592,"巳":3593,"巴":3594,"巷":3595,"巻":3596,"巽":3597,"巾":3598,"币":3599,"市":3600,"布":3601,"帅":3602,"帆":3603,"师":3604,"希":3605,"帐":3606,"帑":3607,"帕":3608,"帖":3609,"帘":3610,"帚":3611,"帛":3612,"帜":3613,"帝":3614,"帥":3615,"带":3616,"帧":3617,"師":3618,"席":3619,"帮":3620,"帯":3621,"帰":3622,"帳":3623,"帶":3624,"帷":3625,"常":3626,"帽":3627,"幀":3628,"幂":3629,"幅":3630,"幇":3631,"幌":3632,"幔":3633,"幕":3634,"幟":3635,"幡":3636,"幢":3637,"幣":3638,"幫":3639,"干":3640,"平":3641,"年":3642,"并":3643,"幸":3644,"幹":3645,"幺":3646,"幻":3647,"幼":3648,"幽":3649,"幾":3650,"广":3651,"庁":3652,"広":3653,"庄":3654,"庆":3655,"庇":3656,"床":3657,"序":3658,"庐":3659,"库":3660,"应":3661,"底":3662,"店":3663,"庙":3664,"庚":3665,"府":3666,"庞":3667,"废":3668,"庠":3669,"度":3670,"座":3671,"庫":3672,"庭":3673,"庵":3674,"庶":3675,"康":3676,"庸":3677,"庾":3678,"廁":3679,"廂":3680,"廃":3681,"廈":3682,"廉":3683,"廊":3684,"廍":3685,"廓":3686,"廖":3687,"廚":3688,"廟":3689,"廠":3690,"廢":3691,"廣":3692,"廬":3693,"廳":3694,"延":3695,"廷":3696,"建":3697,"廻":3698,"廼":3699,"廿":3700,"开":3701,"弁":3702,"异":3703,"弃":3704,"弄":3705,"弈":3706,"弊":3707,"弋":3708,"式":3709,"弐":3710,"弑":3711,"弒":3712,"弓":3713,"弔":3714,"引":3715,"弗":3716,"弘":3717,"弛":3718,"弟":3719,"张":3720,"弥":3721,"弦":3722,"弧":3723,"弩":3724,"弭":3725,"弯":3726,"弱":3727,"張":3728,"強":3729,"弹":3730,"强":3731,"弼":3732,"弾":3733,"彅":3734,"彈":3735,"彊":3736,"彌":3737,"彎":3738,"归":3739,"当":3740,"录":3741,"彗":3742,"彙":3743,"彝":3744,"形":3745,"彤":3746,"彥":3747,"彦":3748,"彧":3749,"彩":3750,"彪":3751,"彫":3752,"彬":3753,"彭":3754,"彰":3755,"影":3756,"彷":3757,"役":3758,"彻":3759,"彼":3760,"彿":3761,"往":3762,"征":3763,"径":3764,"待":3765,"徇":3766,"很":3767,"徊":3768,"律":3769,"後":3770,"徐":3771,"徑":3772,"徒":3773,"従":3774,"得":3775,"徘":3776,"徙":3777,"從":3778,"徠":3779,"御":3780,"徨":3781,"復":3782,"循":3783,"徭":3784,"微":3785,"徳":3786,"徴":3787,"徵":3788,"德":3789,"徹":3790,"徽":3791,"心":3792,"必":3793,"忆":3794,"忌":3795,"忍":3796,"忏":3797,"忒":3798,"志":3799,"忘":3800,"忙":3801,"応":3802,"忠":3803,"忤":3804,"忧":3805,"快":3806,"忱":3807,"念":3808,"忻":3809,"忽":3810,"忿":3811,"怀":3812,"态":3813,"怎":3814,"怒":3815,"怕":3816,"怖":3817,"怛":3818,"怜":3819,"思":3820,"怠":3821,"怡":3822,"急":3823,"性":3824,"怨":3825,"怪":3826,"怯":3827,"总":3828,"恂":3829,"恃":3830,"恆":3831,"恋":3832,"恍":3833,"恐":3834,"恒":3835,"恕":3836,"恙":3837,"恚":3838,"恢":3839,"恣":3840,"恤":3841,"恥":3842,"恨":3843,"恩":3844,"恪":3845,"恬":3846,"恭":3847,"息":3848,"恰":3849,"恳":3850,"恵":3851,"恶":3852,"恺":3853,"恼":3854,"恽":3855,"恿":3856,"悄":3857,"悅":3858,"悉":3859,"悌":3860,"悍":3861,"悔":3862,"悖":3863,"悚":3864,"悟":3865,"悠":3866,"患":3867,"悦":3868,"您":3869,"悩":3870,"悪":3871,"悬":3872,"悯":3873,"悲":3874,"悶":3875,"悸":3876,"悼":3877,"情":3878,"惇":3879,"惊":3880,"惑":3881,"惕":3882,"惚":3883,"惛":3884,"惜":3885,"惟":3886,"惠":3887,"惡":3888,"惣":3889,"惧":3890,"惨":3891,"惩":3892,"惮":3893,"惯":3894,"惰":3895,"惱":3896,"惲":3897,"想":3898,"惶":3899,"惹":3900,"惺":3901,"愁":3902,"愈":3903,"愉":3904,"愍":3905,"意":3906,"愔":3907,"愕":3908,"愚":3909,"愛":3910,"感":3911,"愤":3912,"愧":3913,"愫":3914,"愷":3915,"愼":3916,"愿":3917,"慄":3918,"慈":3919,"態":3920,"慌":3921,"慎":3922,"慑":3923,"慕":3924,"慘":3925,"慚":3926,"慟":3927,"慢":3928,"慣":3929,"慧":3930,"慨":3931,"慮":3932,"慰":3933,"慳":3934,"慶":3935,"慷":3936,"慾":3937,"憂":3938,"憍":3939,"憎":3940,"憐":3941,"憑":3942,"憚":3943,"憤":3944,"憧":3945,"憨":3946,"憩":3947,"憫":3948,"憬":3949,"憲":3950,"憶":3951,"憾":3952,"懂":3953,"懇":3954,"懈":3955,"應":3956,"懋":3957,"懐":3958,"懒":3959,"懦":3960,"懲":3961,"懶":3962,"懷":3963,"懸":3964,"懺":3965,"懼":3966,"懿":3967,"戀":3968,"戈":3969,"戊":3970,"戌":3971,"戍":3972,"戎":3973,"戏":3974,"成":3975,"我":3976,"戒":3977,"或":3978,"战":3979,"戚":3980,"戛":3981,"戟":3982,"戡":3983,"戦":3984,"截":3985,"戮":3986,"戯":3987,"戰":3988,"戱":3989,"戲":3990,"戳":3991,"戴":3992,"戶":3993,"户":3994,"戸":3995,"戻":3996,"戾":3997,"房":3998,"所":3999,"扁":4000,"扇":4001,"扈":4002,"扉":4003,"手":4004,"才":4005,"扎":4006,"扑":4007,"扒":4008,"打":4009,"扔":4010,"払":4011,"托":4012,"扛":4013,"扣":4014,"执":4015,"扩":4016,"扫":4017,"扬":4018,"扭":4019,"扮":4020,"扯":4021,"扰":4022,"扱":4023,"扳":4024,"扶":4025,"批":4026,"扼":4027,"找":4028,"承":4029,"技":4030,"抄":4031,"抉":4032,"把":4033,"抑":4034,"抒":4035,"抓":4036,"投":4037,"抖":4038,"抗":4039,"折":4040,"抚":4041,"抛":4042,"抜":4043,"択":4044,"抢":4045,"护":4046,"报":4047,"抨":4048,"披":4049,"抬":4050,"抱":4051,"抵":4052,"抹":4053,"押":4054,"抽":4055,"拂":4056,"担":4057,"拆":4058,"拇":4059,"拉":4060,"拋":4061,"拌":4062,"拍":4063,"拏":4064,"拐":4065,"拒":4066,"拓":4067,"拔":4068,"拖":4069,"拗":4070,"拘":4071,"拙":4072,"拚":4073,"招":4074,"拜":4075,"拝":4076,"拟":4077,"拠":4078,"拡":4079,"拢":4080,"拣":4081,"拥":4082,"拦":4083,"拨":4084,"择":4085,"括":4086,"拭":4087,"拮":4088,"拯":4089,"拱":4090,"拳":4091,"拶":4092,"拷":4093,"拼":4094,"拾":4095,"拿":4096,"持":4097,"挂":4098,"指":4099,"按":4100,"挑":4101,"挖":4102,"挙":4103,"挚":4104,"挛":4105,"挝":4106,"挞":4107,"挟":4108,"挠":4109,"挡":4110,"挣":4111,"挤":4112,"挥":4113,"挨":4114,"挪":4115,"挫":4116,"振":4117,"挹":4118,"挺":4119,"挽":4120,"挾":4121,"挿":4122,"捆":4123,"捉":4124,"捌":4125,"捍":4126,"捏":4127,"捐":4128,"捕":4129,"捗":4130,"捜":4131,"捞":4132,"损":4133,"捡":4134,"换":4135,"捣":4136,"捧":4137,"捨":4138,"捩":4139,"据":4140,"捲":4141,"捷":4142,"捺":4143,"捻":4144,"掀":4145,"掃":4146,"授":4147,"掉":4148,"掌":4149,"掏":4150,"排":4151,"掖":4152,"掘":4153,"掙":4154,"掛":4155,"掟":4156,"掠":4157,"採":4158,"探":4159,"掣":4160,"接":4161,"控":4162,"推":4163,"掩":4164,"措":4165,"掬":4166,"掲":4167,"掳":4168,"掴":4169,"掷":4170,"掸":4171,"掺":4172,"掻":4173,"掾":4174,"揀":4175,"揃":4176,"揄":4177,"揆":4178,"揉":4179,"描":4180,"提":4181,"插":4182,"揖":4183,"揚":4184,"換":4185,"握":4186,"揣":4187,"揪":4188,"揭":4189,"揮":4190,"援":4191,"揶":4192,"揺":4193,"揽":4194,"搁":4195,"搅":4196,"損":4197,"搏":4198,"搖":4199,"搗":4200,"搜":4201,"搞":4202,"搬":4203,"搭":4204,"搶":4205,"携":4206,"搾":4207,"摂":4208,"摄":4209,"摆":4210,"摇":4211,"摊":4212,"摒":4213,"摔":4214,"摘":4215,"摠":4216,"摧":4217,"摩":4218,"摯":4219,"摸":4220,"摹":4221,"摺":4222,"摻":4223,"撃":4224,"撇":4225,"撈":4226,"撐":4227,"撑":4228,"撒":4229,"撓":4230,"撕":4231,"撞":4232,"撣":4233,"撤":4234,"撥":4235,"撫":4236,"播":4237,"撮":4238,"撰":4239,"撲":4240,"撹":4241,"撻":4242,"撼":4243,"撿":4244,"擁":4245,"擂":4246,"擄":4247,"擅":4248,"擇":4249,"擊":4250,"擋":4251,"操":4252,"擎":4253,"擒":4254,"擔":4255,"擘":4256,"據":4257,"擠":4258,"擢":4259,"擦":4260,"擧":4261,"擬":4262,"擱":4263,"擲":4264,"擴":4265,"擺":4266,"擾":4267,"攀":4268,"攏":4269,"攔":4270,"攘":4271,"攜":4272,"攝":4273,"攣":4274,"攤":4275,"攪":4276,"攫":4277,"攬":4278,"支":4279,"收":4280,"攸":4281,"改":4282,"攻":4283,"放":4284,"政":4285,"故":4286,"效":4287,"敌":4288,"敍":4289,"敎":4290,"敏":4291,"救":4292,"敕":4293,"敖":4294,"敗":4295,"敘":4296,"教":4297,"敛":4298,"敝":4299,"敞":4300,"敢":4301,"散":4302,"敦":4303,"敬":4304,"数":4305,"敲":4306,"整":4307,"敵":4308,"敷":4309,"數":4310,"斂":4311,"斃":4312,"文":4313,"斉":4314,"斋":4315,"斌":4316,"斎":4317,"斐":4318,"斑":4319,"斗":4320,"料":4321,"斛":4322,"斜":4323,"斟":4324,"斡":4325,"斤":4326,"斥":4327,"斧":4328,"斩":4329,"斬":4330,"断":4331,"斯":4332,"新":4333,"斷":4334,"方":4335,"於":4336,"施":4337,"旁":4338,"旃":4339,"旅":4340,"旋":4341,"旌":4342,"族":4343,"旗":4344,"旛":4345,"无":4346,"既":4347,"日":4348,"旦":4349,"旧":4350,"旨":4351,"早":4352,"旬":4353,"旭":4354,"旱":4355,"时":4356,"旷":4357,"旺":4358,"旻":4359,"旼":4360,"昀":4361,"昂":4362,"昆":4363,"昇":4364,"昉":4365,"昊":4366,"昌":4367,"明":4368,"昏":4369,"易":4370,"昔":4371,"昕":4372,"昙":4373,"星":4374,"映":4375,"春":4376,"昧":4377,"昨":4378,"昭":4379,"是":4380,"昱":4381,"昴":4382,"昵":4383,"昶":4384,"昼":4385,"显":4386,"晁":4387,"時":4388,"晃":4389,"晉":4390,"晋":4391,"晏":4392,"晒":4393,"晓":4394,"晔":4395,"晕":4396,"晖":4397,"晗":4398,"晚":4399,"晝":4400,"晞":4401,"晟":4402,"晤":4403,"晦":4404,"晨":4405,"晩":4406,"普":4407,"景":4408,"晰":4409,"晴":4410,"晶":4411,"晷":4412,"智":4413,"暁":4414,"暂":4415,"暄":4416,"暇":4417,"暈":4418,"暉":4419,"暎":4420,"暐":4421,"暑":4422,"暖":4423,"暗":4424,"暠":4425,"暢":4426,"暦":4427,"暧":4428,"暨":4429,"暫":4430,"暮":4431,"暱":4432,"暴":4433,"暹":4434,"曄":4435,"曆":4436,"曇":4437,"曉":4438,"曖":4439,"曙":4440,"曜":4441,"曝":4442,"曠":4443,"曦":4444,"曬":4445,"曰":4446,"曲":4447,"曳":4448,"更":4449,"曷":4450,"書":4451,"曹":4452,"曺":4453,"曼":4454,"曽":4455,"曾":4456,"替":4457,"最":4458,"會":4459,"月":4460,"有":4461,"朋":4462,"服":4463,"朐":4464,"朔":4465,"朕":4466,"朗":4467,"望":4468,"朝":4469,"期":4470,"朦":4471,"朧":4472,"木":4473,"未":4474,"末":4475,"本":4476,"札":4477,"术":4478,"朱":4479,"朴":4480,"朵":4481,"机":4482,"朽":4483,"杀":4484,"杂":4485,"权":4486,"杆":4487,"杉":4488,"李":4489,"杏":4490,"材":4491,"村":4492,"杓":4493,"杖":4494,"杜":4495,"杞":4496,"束":4497,"杠":4498,"条":4499,"杣":4500,"来":4501,"杨":4502,"杭":4503,"杯":4504,"杰":4505,"東":4506,"杲":4507,"杵":4508,"杷":4509,"杼":4510,"松":4511,"板":4512,"极":4513,"构":4514,"枇":4515,"枉":4516,"枋":4517,"析":4518,"枕":4519,"林":4520,"枚":4521,"果":4522,"枝":4523,"枠":4524,"枡":4525,"枢":4526,"枣":4527,"枪":4528,"枫":4529,"枭":4530,"枯":4531,"架":4532,"枷":4533,"柄":4534,"柊":4535,"柏":4536,"某":4537,"柑":4538,"染":4539,"柔":4540,"柘":4541,"柚":4542,"柜":4543,"柝":4544,"柞":4545,"柠":4546,"查":4547,"柩":4548,"柬":4549,"柯":4550,"柱":4551,"柳":4552,"柴":4553,"柵":4554,"査":4555,"柾":4556,"柿":4557,"栃":4558,"栄":4559,"栅":4560,"标":4561,"栈":4562,"栉":4563,"栋":4564,"栎":4565,"栏":4566,"树":4567,"栓":4568,"栖":4569,"栗":4570,"栞":4571,"校":4572,"栢":4573,"栩":4574,"株":4575,"栱":4576,"样":4577,"核":4578,"根":4579,"格":4580,"栽":4581,"栾":4582,"桀":4583,"桁":4584,"桂":4585,"桃":4586,"桅":4587,"框":4588,"案":4589,"桌":4590,"桐":4591,"桑":4592,"桓":4593,"桔":4594,"桜":4595,"桝":4596,"桟":4597,"桢":4598,"档":4599,"桥":4600,"桦":4601,"桧":4602,"桨":4603,"桩":4604,"桶":4605,"桿":4606,"梁":4607,"梅":4608,"梓":4609,"梗":4610,"條":4611,"梟":4612,"梢":4613,"梦":4614,"梧":4615,"梨":4616,"梭":4617,"梯":4618,"械":4619,"梱":4620,"梳":4621,"梵":4622,"梶":4623,"检":4624,"棄":4625,"棉":4626,"棋":4627,"棍":4628,"棒":4629,"棕":4630,"棗":4631,"棘":4632,"棚":4633,"棟":4634,"棠":4635,"棣":4636,"棧":4637,"棨":4638,"森":4639,"棱":4640,"棲":4641,"棵":4642,"棹":4643,"棺":4644,"棻":4645,"椀":4646,"椅":4647,"椋":4648,"植":4649,"椎":4650,"椒":4651,"椙":4652,"検":4653,"椭":4654,"椰":4655,"椴":4656,"椽":4657,"椿":4658,"楊":4659,"楓":4660,"楔":4661,"楕":4662,"楚":4663,"楞":4664,"楠":4665,"楡":4666,"楢":4667,"楣":4668,"楨":4669,"楫":4670,"業":4671,"楯":4672,"極":4673,"楷":4674,"楸":4675,"楹":4676,"楼":4677,"楽":4678,"概":4679,"榄":4680,"榆":4681,"榈":4682,"榊":4683,"榎":4684,"榔":4685,"榕":4686,"榘":4687,"榛":4688,"榜":4689,"榨":4690,"榭":4691,"榮":4692,"榴":4693,"榷":4694,"榻":4695,"槃":4696,"槇":4697,"構":4698,"槌":4699,"槍":4700,"槎":4701,"槐":4702,"槓":4703,"様":4704,"槙":4705,"槛":4706,"槟":4707,"槭":4708,"槳":4709,"槻":4710,"槽":4711,"槿":4712,"樁":4713,"樂":4714,"樅":4715,"樊":4716,"樋":4717,"樑":4718,"樓":4719,"標":4720,"樞":4721,"樟":4722,"模":4723,"樣":4724,"権":4725,"横":4726,"樫":4727,"樱":4728,"樵":4729,"樸":4730,"樹":4731,"樺":4732,"樽":4733,"橄":4734,"橇":4735,"橈":4736,"橋":4737,"橐":4738,"橘":4739,"橙":4740,"機":4741,"橡":4742,"橢":4743,"橫":4744,"橿":4745,"檀":4746,"檄":4747,"檎":4748,"檐":4749,"檔":4750,"檗":4751,"檜":4752,"檢":4753,"檬":4754,"檯":4755,"檳":4756,"檸":4757,"檻":4758,"櫂":4759,"櫃":4760,"櫓":4761,"櫚":4762,"櫛":4763,"櫟":4764,"櫥":4765,"櫻":4766,"欄":4767,"欅":4768,"權":4769,"欒":4770,"欖":4771,"欠":4772,"次":4773,"欢":4774,"欣":4775,"欧":4776,"欲":4777,"欺":4778,"欽":4779,"款":4780,"歆":4781,"歇":4782,"歉":4783,"歌":4784,"歎":4785,"歐":4786,"歓":4787,"歙":4788,"歡":4789,"止":4790,"正":4791,"此":4792,"步":4793,"武":4794,"歧":4795,"歩":4796,"歪":4797,"歯":4798,"歲":4799,"歳":4800,"歴":4801,"歷":4802,"歸":4803,"歹":4804,"死":4805,"歼":4806,"歿":4807,"殁":4808,"殃":4809,"殆":4810,"殇":4811,"殉":4812,"殊":4813,"残":4814,"殖":4815,"殘":4816,"殡":4817,"殤":4818,"殭":4819,"殯":4820,"殲":4821,"殴":4822,"段":4823,"殷":4824,"殺":4825,"殻":4826,"殼":4827,"殿":4828,"毀":4829,"毁":4830,"毅":4831,"毆":4832,"毋":4833,"母":4834,"毎":4835,"每":4836,"毒":4837,"毓":4838,"比":4839,"毕":4840,"毗":4841,"毘":4842,"毙":4843,"毛":4844,"毫":4845,"毬":4846,"毯":4847,"氈":4848,"氏":4849,"氐":4850,"民":4851,"氓":4852,"气":4853,"気":4854,"氙":4855,"氛":4856,"氟":4857,"氢":4858,"氣":4859,"氦":4860,"氧":4861,"氨":4862,"氫":4863,"氮":4864,"氯":4865,"氰":4866,"水":4867,"氵":4868,"氷":4869,"永":4870,"氹":4871,"氾":4872,"汀":4873,"汁":4874,"求":4875,"汇":4876,"汉":4877,"汎":4878,"汐":4879,"汕":4880,"汗":4881,"汙":4882,"汚":4883,"汛":4884,"汜":4885,"汝":4886,"汞":4887,"江":4888,"池":4889,"污":4890,"汤":4891,"汨":4892,"汪":4893,"汰":4894,"汲":4895,"汴":4896,"汶":4897,"決":4898,"汽":4899,"汾":4900,"沁":4901,"沂":4902,"沃":4903,"沅":4904,"沆":4905,"沈":4906,"沉":4907,"沌":4908,"沐":4909,"沒":4910,"沓":4911,"沔":4912,"沖":4913,"沙":4914,"沛":4915,"沟":4916,"没":4917,"沢":4918,"沥":4919,"沦":4920,"沧":4921,"沪":4922,"沫":4923,"沭":4924,"沮":4925,"沱":4926,"河":4927,"沸":4928,"油":4929,"治":4930,"沼":4931,"沽":4932,"沾":4933,"沿":4934,"況":4935,"泄":4936,"泉":4937,"泊":4938,"泌":4939,"泓":4940,"法":4941,"泗":4942,"泛":4943,"泠":4944,"泡":4945,"波":4946,"泣":4947,"泥":4948,"注":4949,"泪":4950,"泮":4951,"泰":4952,"泳":4953,"泵":4954,"泷":4955,"泸":4956,"泻":4957,"泼":4958,"泽":4959,"泾":4960,"洁":4961,"洄":4962,"洋":4963,"洒":4964,"洗":4965,"洙":4966,"洛":4967,"洞":4968,"津":4969,"洩":4970,"洪":4971,"洮":4972,"洱":4973,"洲":4974,"洵":4975,"洸":4976,"洹":4977,"活":4978,"洼":4979,"洽":4980,"派":4981,"流":4982,"浄":4983,"浅":4984,"浆":4985,"浇":4986,"浊":4987,"测":4988,"济":4989,"浏":4990,"浑":4991,"浒":4992,"浓":4993,"浔":4994,"浙":4995,"浚":4996,"浜":4997,"浣":4998,"浦":4999,"浩":5000,"浪":5001,"浬":5002,"浮":5003,"浴":5004,"海":5005,"浸":5006,"涂":5007,"涅":5008,"涇":5009,"消":5010,"涉":5011,"涌":5012,"涎":5013,"涓":5014,"涕":5015,"涙":5016,"涛":5017,"涝":5018,"涟":5019,"涡":5020,"涤":5021,"润":5022,"涧":5023,"涨":5024,"涩":5025,"涪":5026,"涯":5027,"液":5028,"涵":5029,"涸":5030,"涼":5031,"涿":5032,"淀":5033,"淄":5034,"淅":5035,"淆":5036,"淇":5037,"淋":5038,"淑":5039,"淖":5040,"淘":5041,"淚":5042,"淝":5043,"淞":5044,"淡":5045,"淤":5046,"淦":5047,"淨":5048,"淪":5049,"淫":5050,"淮":5051,"深":5052,"淳":5053,"淵":5054,"混":5055,"淸":5056,"淹":5057,"淺":5058,"添":5059,"淼":5060,"清":5061,"渇":5062,"済":5063,"渉":5064,"渊":5065,"渋":5066,"渍":5067,"渎":5068,"渐":5069,"渓":5070,"渔":5071,"渕":5072,"渗":5073,"渚":5074,"減":5075,"渝":5076,"渠":5077,"渡":5078,"渣":5079,"渤":5080,"渥":5081,"渦":5082,"温":5083,"測":5084,"渭":5085,"港":5086,"渲":5087,"渴":5088,"游":5089,"渺":5090,"渾":5091,"湃":5092,"湄":5093,"湊":5094,"湍":5095,"湖":5096,"湘":5097,"湛":5098,"湟":5099,"湧":5100,"湮":5101,"湯":5102,"湳":5103,"湾":5104,"湿":5105,"満":5106,"溃":5107,"溅":5108,"溉":5109,"源":5110,"準":5111,"溜":5112,"溝":5113,"溟":5114,"溢":5115,"溥":5116,"溧":5117,"溪":5118,"溫":5119,"溯":5120,"溴":5121,"溶":5122,"溺":5123,"滁":5124,"滂":5125,"滄":5126,"滅":5127,"滇":5128,"滉":5129,"滋":5130,"滌":5131,"滎":5132,"滑":5133,"滓":5134,"滔":5135,"滕":5136,"滘":5137,"滙":5138,"滚":5139,"滝":5140,"滞":5141,"满":5142,"滤":5143,"滥":5144,"滦":5145,"滨":5146,"滩":5147,"滬":5148,"滯":5149,"滲":5150,"滴":5151,"滸":5152,"滾":5153,"滿":5154,"漁":5155,"漂":5156,"漆":5157,"漉":5158,"漏":5159,"漑":5160,"漓":5161,"演":5162,"漕":5163,"漠":5164,"漢":5165,"漣":5166,"漩":5167,"漪":5168,"漫":5169,"漬":5170,"漯":5171,"漱":5172,"漲":5173,"漳":5174,"漸":5175,"漾":5176,"漿":5177,"潁":5178,"潇":5179,"潍":5180,"潑":5181,"潔":5182,"潘":5183,"潛":5184,"潜":5185,"潞":5186,"潟":5187,"潢":5188,"潤":5189,"潦":5190,"潭":5191,"潮":5192,"潯":5193,"潰":5194,"潼":5195,"澀":5196,"澁":5197,"澂":5198,"澄":5199,"澆":5200,"澈":5201,"澍":5202,"澎":5203,"澗":5204,"澜":5205,"澡":5206,"澤":5207,"澧":5208,"澪":5209,"澱":5210,"澳":5211,"澹":5212,"激":5213,"濁":5214,"濂":5215,"濃":5216,"濑":5217,"濒":5218,"濕":5219,"濛":5220,"濟":5221,"濠":5222,"濡":5223,"濤":5224,"濫":5225,"濬":5226,"濮":5227,"濯":5228,"濰":5229,"濱":5230,"濺":5231,"濾":5232,"瀆":5233,"瀉":5234,"瀋":5235,"瀏":5236,"瀑":5237,"瀕":5238,"瀘":5239,"瀚":5240,"瀛":5241,"瀝":5242,"瀞":5243,"瀟":5244,"瀧":5245,"瀨":5246,"瀬":5247,"瀾":5248,"灌":5249,"灏":5250,"灑":5251,"灘":5252,"灝":5253,"灞":5254,"灣":5255,"灤":5256,"火":5257,"灭":5258,"灯":5259,"灰":5260,"灵":5261,"灶":5262,"灸":5263,"灼":5264,"災":5265,"灾":5266,"灿":5267,"炀":5268,"炅":5269,"炉":5270,"炊":5271,"炎":5272,"炒":5273,"炔":5274,"炘":5275,"炙":5276,"炜":5277,"炫":5278,"炬":5279,"炭":5280,"炮":5281,"炯":5282,"炱":5283,"炳":5284,"炸":5285,"点":5286,"為":5287,"炼":5288,"炽":5289,"烁":5290,"烂":5291,"烃":5292,"烈":5293,"烏":5294,"烘":5295,"烙":5296,"烛":5297,"烟":5298,"烤":5299,"烦":5300,"烧":5301,"烨":5302,"烫":5303,"热":5304,"烯":5305,"烴":5306,"烷":5307,"烹":5308,"烽":5309,"焉":5310,"焊":5311,"焔":5312,"焕":5313,"焘":5314,"焙":5315,"焚":5316,"焜":5317,"無":5318,"焦":5319,"焯":5320,"焰":5321,"然":5322,"焼":5323,"煇":5324,"煉":5325,"煊":5326,"煌":5327,"煎":5328,"煒":5329,"煕":5330,"煙":5331,"煜":5332,"煞":5333,"煤":5334,"煥":5335,"煦":5336,"照":5337,"煩":5338,"煬":5339,"煮":5340,"煲":5341,"煽":5342,"熄":5343,"熊":5344,"熏":5345,"熒":5346,"熔":5347,"熙":5348,"熟":5349,"熬":5350,"熱":5351,"熵":5352,"熹":5353,"熾":5354,"燁":5355,"燃":5356,"燈":5357,"燊":5358,"燎":5359,"燐":5360,"燒":5361,"燕":5362,"燙":5363,"營":5364,"燥":5365,"燦":5366,"燧":5367,"燭":5368,"燮":5369,"燻":5370,"燼":5371,"燾":5372,"燿":5373,"爆":5374,"爍":5375,"爐":5376,"爛":5377,"爨":5378,"爪":5379,"爬":5380,"爭":5381,"爰":5382,"爱":5383,"爲":5384,"爵":5385,"父":5386,"爷":5387,"爸":5388,"爹":5389,"爺":5390,"爻":5391,"爽":5392,"爾":5393,"牆":5394,"片":5395,"版":5396,"牌":5397,"牒":5398,"牙":5399,"牛":5400,"牝":5401,"牟":5402,"牠":5403,"牡":5404,"牢":5405,"牧":5406,"物":5407,"牲":5408,"牵":5409,"特":5410,"牺":5411,"牽":5412,"犀":5413,"犁":5414,"犍":5415,"犛":5416,"犠":5417,"犢":5418,"犧":5419,"犬":5420,"犯":5421,"状":5422,"犹":5423,"狀":5424,"狂":5425,"狄":5426,"狐":5427,"狒":5428,"狗":5429,"狙":5430,"狛":5431,"狠":5432,"狡":5433,"狩":5434,"独":5435,"狭":5436,"狮":5437,"狱":5438,"狸":5439,"狹":5440,"狼":5441,"猎":5442,"猕":5443,"猖":5444,"猗":5445,"猛":5446,"猜":5447,"猝":5448,"猟":5449,"猥":5450,"猩":5451,"猪":5452,"猫":5453,"献":5454,"猴":5455,"猶":5456,"猷":5457,"猾":5458,"猿":5459,"獄":5460,"獅":5461,"獎":5462,"獏":5463,"獐":5464,"獠":5465,"獣":5466,"獨":5467,"獲":5468,"獵":5469,"獸":5470,"獺":5471,"獻":5472,"獼":5473,"獾":5474,"玄":5475,"率":5476,"玉":5477,"王":5478,"玖":5479,"玛":5480,"玟":5481,"玠":5482,"玥":5483,"玩":5484,"玫":5485,"玮":5486,"环":5487,"现":5488,"玲":5489,"玳":5490,"玺":5491,"玻":5492,"珀":5493,"珂":5494,"珅":5495,"珈":5496,"珉":5497,"珊":5498,"珍":5499,"珏":5500,"珑":5501,"珙":5502,"珞":5503,"珠":5504,"珣":5505,"珥":5506,"珩":5507,"珪":5508,"班":5509,"珮":5510,"珲":5511,"現":5512,"球":5513,"琅":5514,"理":5515,"琇":5516,"琉":5517,"琊":5518,"琏":5519,"琐":5520,"琚":5521,"琛":5522,"琢":5523,"琥":5524,"琦":5525,"琨":5526,"琪":5527,"琬":5528,"琮":5529,"琰":5530,"琲":5531,"琳":5532,"琴":5533,"琵":5534,"琶":5535,"琼":5536,"琿":5537,"瑀":5538,"瑁":5539,"瑄":5540,"瑋":5541,"瑕":5542,"瑗":5543,"瑙":5544,"瑚":5545,"瑛":5546,"瑜":5547,"瑞":5548,"瑟":5549,"瑠":5550,"瑣":5551,"瑤":5552,"瑩":5553,"瑪":5554,"瑭":5555,"瑯":5556,"瑰":5557,"瑳":5558,"瑶":5559,"瑾":5560,"璀":5561,"璁":5562,"璃":5563,"璇":5564,"璉":5565,"璋":5566,"璐":5567,"璘":5568,"璜":5569,"璞":5570,"璟":5571,"璠":5572,"璧":5573,"璨":5574,"璩":5575,"環":5576,"璽":5577,"璿":5578,"瓊":5579,"瓌":5580,"瓏":5581,"瓒":5582,"瓘":5583,"瓚":5584,"瓜":5585,"瓢":5586,"瓣":5587,"瓦":5588,"瓮":5589,"瓯":5590,"瓶":5591,"瓷":5592,"甄":5593,"甌":5594,"甑":5595,"甕":5596,"甘":5597,"甚":5598,"甜":5599,"生":5600,"產":5601,"産":5602,"甥":5603,"甦":5604,"用":5605,"甩":5606,"甫":5607,"甬":5608,"甯":5609,"田":5610,"由":5611,"甲":5612,"申":5613,"电":5614,"男":5615,"甸":5616,"町":5617,"画":5618,"畅":5619,"畈":5620,"界":5621,"畏":5622,"畑":5623,"畔":5624,"留":5625,"畜":5626,"畝":5627,"畠":5628,"畢":5629,"略":5630,"畦":5631,"番":5632,"畫":5633,"異":5634,"畲":5635,"畳":5636,"畴":5637,"畵":5638,"當":5639,"畷":5640,"畸":5641,"畿":5642,"疃":5643,"疆":5644,"疇":5645,"疊":5646,"疋":5647,"疎":5648,"疏":5649,"疑":5650,"疗":5651,"疚":5652,"疟":5653,"疣":5654,"疤":5655,"疫":5656,"疮":5657,"疯":5658,"疱":5659,"疲":5660,"疵":5661,"疸":5662,"疹":5663,"疼":5664,"疽":5665,"疾":5666,"病":5667,"症":5668,"痊":5669,"痍":5670,"痒":5671,"痔":5672,"痕":5673,"痘":5674,"痙":5675,"痛":5676,"痞":5677,"痢":5678,"痣":5679,"痩":5680,"痪":5681,"痰":5682,"痴":5683,"痹":5684,"痺":5685,"瘀":5686,"瘋":5687,"瘍":5688,"瘓":5689,"瘟":5690,"瘠":5691,"瘡":5692,"瘤":5693,"瘦":5694,"瘧":5695,"瘫":5696,"瘴":5697,"瘾":5698,"療":5699,"癇":5700,"癌":5701,"癒":5702,"癖":5703,"癡":5704,"癢":5705,"癫":5706,"癬":5707,"癮":5708,"癱":5709,"癲":5710,"癸":5711,"発":5712,"登":5713,"發":5714,"白":5715,"百":5716,"皂":5717,"的":5718,"皆":5719,"皇":5720,"皈":5721,"皋":5722,"皎":5723,"皐":5724,"皓":5725,"皖":5726,"皝":5727,"皮":5728,"皱":5729,"皺":5730,"皿":5731,"盂":5732,"盃":5733,"盆":5734,"盈":5735,"益":5736,"盎":5737,"盏":5738,"盐":5739,"监":5740,"盒":5741,"盔":5742,"盖":5743,"盗":5744,"盘":5745,"盛":5746,"盜":5747,"盞":5748,"盟":5749,"盡":5750,"監":5751,"盤":5752,"盧":5753,"盪":5754,"目":5755,"盯":5756,"盱":5757,"盲":5758,"直":5759,"相":5760,"盼":5761,"盾":5762,"省":5763,"眉":5764,"看":5765,"県":5766,"眙":5767,"眞":5768,"真":5769,"眠":5770,"眩":5771,"眶":5772,"眷":5773,"眸":5774,"眺":5775,"眼":5776,"眾":5777,"着":5778,"睇":5779,"睐":5780,"睛":5781,"睞":5782,"睡":5783,"睢":5784,"督":5785,"睦":5786,"睨":5787,"睪":5788,"睫":5789,"睹":5790,"睽":5791,"睾":5792,"睿":5793,"瞄":5794,"瞋":5795,"瞎":5796,"瞑":5797,"瞒":5798,"瞞":5799,"瞥":5800,"瞧":5801,"瞩":5802,"瞪":5803,"瞬":5804,"瞭":5805,"瞰":5806,"瞳":5807,"瞻":5808,"瞼":5809,"瞿":5810,"矗":5811,"矚":5812,"矛":5813,"矜":5814,"矢":5815,"矣":5816,"知":5817,"矧":5818,"矩":5819,"矫":5820,"短":5821,"矮":5822,"矯":5823,"石":5824,"矶":5825,"矽":5826,"矿":5827,"码":5828,"砂":5829,"砌":5830,"砍":5831,"研":5832,"砕":5833,"砖":5834,"砚":5835,"砥":5836,"砦":5837,"砧":5838,"砲":5839,"破":5840,"砷":5841,"砸":5842,"砺":5843,"砾":5844,"础":5845,"硅":5846,"硏":5847,"硒":5848,"硕":5849,"硝":5850,"硤":5851,"硫":5852,"硬":5853,"确":5854,"硯":5855,"硼":5856,"碁":5857,"碇":5858,"碉":5859,"碌":5860,"碍":5861,"碎":5862,"碑":5863,"碓":5864,"碕":5865,"碗":5866,"碘":5867,"碚":5868,"碟":5869,"碣":5870,"碧":5871,"碩":5872,"碰":5873,"碱":5874,"碳":5875,"確":5876,"碼":5877,"碾":5878,"磁":5879,"磅":5880,"磊":5881,"磋":5882,"磐":5883,"磔":5884,"磚":5885,"磡":5886,"磨":5887,"磯":5888,"磷":5889,"磺":5890,"礁":5891,"礎":5892,"礙":5893,"礦":5894,"礪":5895,"礫":5896,"礬":5897,"示":5898,"礼":5899,"社":5900,"祀":5901,"祁":5902,"祂":5903,"祇":5904,"祈":5905,"祉":5906,"祐":5907,"祓":5908,"祕":5909,"祖":5910,"祗":5911,"祚":5912,"祜":5913,"祝":5914,"神":5915,"祟":5916,"祠":5917,"祢":5918,"祥":5919,"票":5920,"祭":5921,"祯":5922,"祷":5923,"祸":5924,"祺":5925,"祿":5926,"禀":5927,"禁":5928,"禄":5929,"禅":5930,"禍":5931,"禎":5932,"福":5933,"禕":5934,"禛":5935,"禦":5936,"禧":5937,"禪":5938,"禮":5939,"禰":5940,"禱":5941,"禹":5942,"禺":5943,"离":5944,"禽":5945,"禾":5946,"禿":5947,"秀":5948,"私":5949,"秃":5950,"秉":5951,"秋":5952,"种":5953,"科":5954,"秒":5955,"秘":5956,"租":5957,"秣":5958,"秤":5959,"秦":5960,"秧":5961,"秩":5962,"积":5963,"称":5964,"移":5965,"秽":5966,"稀":5967,"稅":5968,"程":5969,"稍":5970,"税":5971,"稔":5972,"稗":5973,"稙":5974,"稚":5975,"稜":5976,"稟":5977,"稠":5978,"稣":5979,"種":5980,"稱":5981,"稲":5982,"稳":5983,"稷":5984,"稻":5985,"稼":5986,"稽":5987,"稿":5988,"穀":5989,"穂":5990,"穆":5991,"穌":5992,"積":5993,"穎":5994,"穏":5995,"穗":5996,"穢":5997,"穣":5998,"穩":5999,"穫":6000,"穰":6001,"穴":6002,"究":6003,"穷":6004,"穹":6005,"空":6006,"穿":6007,"突":6008,"窃":6009,"窄":6010,"窈":6011,"窑":6012,"窒":6013,"窓":6014,"窖":6015,"窗":6016,"窘":6017,"窜":6018,"窝":6019,"窟":6020,"窥":6021,"窦":6022,"窩":6023,"窪":6024,"窮":6025,"窯":6026,"窺":6027,"窿":6028,"竄":6029,"竇":6030,"竈":6031,"竊":6032,"立":6033,"竑":6034,"竖":6035,"站":6036,"竜":6037,"竞":6038,"竟":6039,"章":6040,"竣":6041,"童":6042,"竪":6043,"竭":6044,"端":6045,"競":6046,"竹":6047,"竺":6048,"竿":6049,"笃":6050,"笈":6051,"笋":6052,"笏":6053,"笑":6054,"笔":6055,"笙":6056,"笛":6057,"笞":6058,"笠":6059,"笥":6060,"符":6061,"笨":6062,"第":6063,"笹":6064,"笺":6065,"笼":6066,"筆":6067,"筈":6068,"等":6069,"筋":6070,"筍":6071,"筏":6072,"筐":6073,"筑":6074,"筒":6075,"答":6076,"策":6077,"筛":6078,"筝":6079,"筠":6080,"筧":6081,"筱":6082,"筲":6083,"筵":6084,"筷":6085,"筹":6086,"签":6087,"简":6088,"箇":6089,"箋":6090,"箍":6091,"箏":6092,"箐":6093,"箒":6094,"箔":6095,"箕":6096,"算":6097,"管":6098,"箪":6099,"箭":6100,"箱":6101,"箴":6102,"箸":6103,"節":6104,"篁":6105,"範":6106,"篆":6107,"篇":6108,"築":6109,"篙":6110,"篝":6111,"篠":6112,"篡":6113,"篤":6114,"篩":6115,"篭":6116,"篮":6117,"篱":6118,"篷":6119,"簇":6120,"簒":6121,"簗":6122,"簡":6123,"簧":6124,"簪":6125,"簫":6126,"簷":6127,"簸":6128,"簽":6129,"簾":6130,"簿":6131,"籃":6132,"籌":6133,"籍":6134,"籐":6135,"籠":6136,"籤":6137,"籬":6138,"籲":6139,"米":6140,"类":6141,"籽":6142,"籾":6143,"粉":6144,"粋":6145,"粒":6146,"粕":6147,"粗":6148,"粘":6149,"粛":6150,"粟":6151,"粤":6152,"粥":6153,"粧":6154,"粪":6155,"粮":6156,"粱":6157,"粲":6158,"粵":6159,"粹":6160,"粽":6161,"精":6162,"粿":6163,"糊":6164,"糎":6165,"糕":6166,"糖":6167,"糙":6168,"糜":6169,"糞":6170,"糟":6171,"糠":6172,"糧":6173,"糯":6174,"糸":6175,"系":6176,"糾":6177,"紀":6178,"紂":6179,"約":6180,"紅":6181,"紆":6182,"紇":6183,"紊":6184,"紋":6185,"納":6186,"紐":6187,"紓":6188,"純":6189,"紗":6190,"紘":6191,"紙":6192,"級":6193,"紛":6194,"素":6195,"紡":6196,"索":6197,"紧":6198,"紫":6199,"紬":6200,"紮":6201,"累":6202,"細":6203,"紳":6204,"紹":6205,"紺":6206,"終":6207,"絃":6208,"組":6209,"絆":6210,"経":6211,"結":6212,"絕":6213,"絞":6214,"絡":6215,"絢":6216,"給":6217,"絨":6218,"絮":6219,"統":6220,"絲":6221,"絳":6222,"絵":6223,"絶":6224,"絹":6225,"綁":6226,"綏":6227,"經":6228,"継":6229,"続":6230,"綜":6231,"綠":6232,"綢":6233,"綦":6234,"綫":6235,"綬":6236,"維":6237,"綱":6238,"網":6239,"綴":6240,"綸":6241,"綺":6242,"綻":6243,"綽":6244,"綾":6245,"綿":6246,"緊":6247,"緋":6248,"総":6249,"緑":6250,"緒":6251,"線":6252,"緝":6253,"緞":6254,"締":6255,"緣":6256,"編":6257,"緩":6258,"緬":6259,"緯":6260,"練":6261,"緹":6262,"緻":6263,"縁":6264,"縄":6265,"縉":6266,"縊":6267,"縛":6268,"縞":6269,"縣":6270,"縦":6271,"縫":6272,"縮":6273,"縱":6274,"縷":6275,"縻":6276,"總":6277,"績":6278,"繁":6279,"繆":6280,"繇":6281,"繊":6282,"繋":6283,"繍":6284,"織":6285,"繕":6286,"繚":6287,"繞":6288,"繡":6289,"繩":6290,"繪":6291,"繫":6292,"繭":6293,"繰":6294,"繳":6295,"繹":6296,"繼":6297,"纂":6298,"續":6299,"纏":6300,"纓":6301,"纖":6302,"纜":6303,"纠":6304,"红":6305,"纤":6306,"纥":6307,"约":6308,"级":6309,"纪":6310,"纬":6311,"纮":6312,"纯":6313,"纱":6314,"纲":6315,"纳":6316,"纵":6317,"纶":6318,"纷":6319,"纸":6320,"纹":6321,"纺":6322,"纽":6323,"纾":6324,"线":6325,"绀":6326,"练":6327,"组":6328,"绅":6329,"细":6330,"织":6331,"终":6332,"绊":6333,"绍":6334,"绎":6335,"经":6336,"绑":6337,"绒":6338,"结":6339,"绕":6340,"绘":6341,"给":6342,"绚":6343,"绛":6344,"络":6345,"绝":6346,"绞":6347,"统":6348,"绢":6349,"绣":6350,"绥":6351,"继":6352,"绩":6353,"绪":6354,"绫":6355,"续":6356,"绮":6357,"绯":6358,"绰":6359,"绳":6360,"维":6361,"绵":6362,"绶":6363,"绸":6364,"综":6365,"绽":6366,"绿":6367,"缀":6368,"缅":6369,"缆":6370,"缇":6371,"缉":6372,"缎":6373,"缓":6374,"缔":6375,"缕":6376,"编":6377,"缘":6378,"缙":6379,"缚":6380,"缝":6381,"缠":6382,"缢":6383,"缨":6384,"缩":6385,"缪":6386,"缮":6387,"缴":6388,"缶":6389,"缸":6390,"缺":6391,"缽":6392,"罂":6393,"罄":6394,"罌":6395,"罐":6396,"网":6397,"罔":6398,"罕":6399,"罗":6400,"罚":6401,"罠":6402,"罢":6403,"罩":6404,"罪":6405,"置":6406,"罰":6407,"署":6408,"罵":6409,"罷":6410,"罹":6411,"羁":6412,"羅":6413,"羈":6414,"羊":6415,"羌":6416,"美":6417,"羔":6418,"羚":6419,"羞":6420,"羟":6421,"羡":6422,"羣":6423,"群":6424,"羥":6425,"羧":6426,"羨":6427,"義":6428,"羯":6429,"羰":6430,"羲":6431,"羹":6432,"羽":6433,"羿":6434,"翁":6435,"翅":6436,"翊":6437,"翌":6438,"翎":6439,"習":6440,"翔":6441,"翘":6442,"翟":6443,"翠":6444,"翡":6445,"翦":6446,"翩":6447,"翰":6448,"翱":6449,"翳":6450,"翹":6451,"翻":6452,"翼":6453,"耀":6454,"老":6455,"考":6456,"者":6457,"耆":6458,"而":6459,"耍":6460,"耐":6461,"耒":6462,"耕":6463,"耗":6464,"耘":6465,"耙":6466,"耦":6467,"耳":6468,"耶":6469,"耸":6470,"耻":6471,"耽":6472,"耿":6473,"聂":6474,"聆":6475,"聊":6476,"聋":6477,"职":6478,"联":6479,"聖":6480,"聘":6481,"聚":6482,"聞":6483,"聡":6484,"聪":6485,"聯":6486,"聰":6487,"聲":6488,"聳":6489,"聴":6490,"聶":6491,"職":6492,"聽":6493,"聾":6494,"聿":6495,"肃":6496,"肄":6497,"肅":6498,"肆":6499,"肇":6500,"肉":6501,"肋":6502,"肌":6503,"肖":6504,"肘":6505,"肚":6506,"肛":6507,"肝":6508,"肠":6509,"股":6510,"肢":6511,"肤":6512,"肥":6513,"肩":6514,"肪":6515,"肯":6516,"肱":6517,"育":6518,"肴":6519,"肺":6520,"肽":6521,"肾":6522,"肿":6523,"胀":6524,"胁":6525,"胃":6526,"胄":6527,"胆":6528,"背":6529,"胎":6530,"胖":6531,"胚":6532,"胜":6533,"胞":6534,"胡":6535,"胤":6536,"胥":6537,"胪":6538,"胭":6539,"胰":6540,"胱":6541,"胴":6542,"胶":6543,"胸":6544,"胺":6545,"能":6546,"脂":6547,"脅":6548,"脆":6549,"脇":6550,"脈":6551,"脉":6552,"脊":6553,"脏":6554,"脐":6555,"脑":6556,"脖":6557,"脚":6558,"脛":6559,"脩":6560,"脫":6561,"脯":6562,"脱":6563,"脳":6564,"脷":6565,"脸":6566,"脹":6567,"脾":6568,"腈":6569,"腊":6570,"腋":6571,"腌":6572,"腎":6573,"腐":6574,"腑":6575,"腓":6576,"腔":6577,"腕":6578,"腥":6579,"腦":6580,"腫":6581,"腮":6582,"腰":6583,"腱":6584,"腳":6585,"腸":6586,"腹":6587,"腺":6588,"腻":6589,"腾":6590,"腿":6591,"膀":6592,"膏":6593,"膚":6594,"膛":6595,"膜":6596,"膝":6597,"膠":6598,"膣":6599,"膦":6600,"膨":6601,"膩":6602,"膳":6603,"膵":6604,"膺":6605,"膽":6606,"膿":6607,"臀":6608,"臂":6609,"臆":6610,"臉":6611,"臍":6612,"臓":6613,"臘":6614,"臚":6615,"臟":6616,"臣":6617,"臥":6618,"臧":6619,"臨":6620,"自":6621,"臭":6622,"至":6623,"致":6624,"臺":6625,"臻":6626,"臼":6627,"舂":6628,"舅":6629,"舆":6630,"與":6631,"興":6632,"舉":6633,"舊":6634,"舌":6635,"舍":6636,"舎":6637,"舐":6638,"舒":6639,"舔":6640,"舖":6641,"舗":6642,"舘":6643,"舛":6644,"舜":6645,"舞":6646,"舟":6647,"航":6648,"舫":6649,"般":6650,"舰":6651,"舱":6652,"舵":6653,"舶":6654,"舷":6655,"船":6656,"舺":6657,"艇":6658,"艉":6659,"艋":6660,"艏":6661,"艘":6662,"艙":6663,"艤":6664,"艦":6665,"艮":6666,"良":6667,"艰":6668,"艱":6669,"色":6670,"艳":6671,"艶":6672,"艷":6673,"艺":6674,"艾":6675,"节":6676,"芋":6677,"芍":6678,"芎":6679,"芒":6680,"芙":6681,"芜":6682,"芝":6683,"芥":6684,"芦":6685,"芩":6686,"芬":6687,"芭":6688,"芮":6689,"芯":6690,"花":6691,"芳":6692,"芷":6693,"芸":6694,"芹":6695,"芻":6696,"芽":6697,"芾":6698,"苅":6699,"苇":6700,"苍":6701,"苏":6702,"苑":6703,"苓":6704,"苔":6705,"苗":6706,"苛":6707,"苞":6708,"苟":6709,"苣":6710,"若":6711,"苦":6712,"苫":6713,"苯":6714,"英":6715,"苳":6716,"苴":6717,"苷":6718,"苹":6719,"苺":6720,"苻":6721,"苾":6722,"茂":6723,"范":6724,"茄":6725,"茅":6726,"茉":6727,"茎":6728,"茗":6729,"茛":6730,"茜":6731,"茧":6732,"茨":6733,"茫":6734,"茱":6735,"茲":6736,"茴":6737,"茵":6738,"茶":6739,"茸":6740,"茹":6741,"荀":6742,"荃":6743,"荆":6744,"草":6745,"荊":6746,"荏":6747,"荐":6748,"荒":6749,"荔":6750,"荖":6751,"荘":6752,"荚":6753,"荟":6754,"荡":6755,"荣":6756,"荥":6757,"荧":6758,"荫":6759,"药":6760,"荷":6761,"荻":6762,"荼":6763,"莅":6764,"莆":6765,"莉":6766,"莊":6767,"莎":6768,"莒":6769,"莓":6770,"莖":6771,"莘":6772,"莞":6773,"莢":6774,"莪":6775,"莫":6776,"莱":6777,"莲":6778,"获":6779,"莹":6780,"莺":6781,"莽":6782,"莿":6783,"菀":6784,"菁":6785,"菅":6786,"菇":6787,"菈":6788,"菊":6789,"菌":6790,"菏":6791,"菓":6792,"菖":6793,"菘":6794,"菜":6795,"菟":6796,"菠":6797,"菩":6798,"菫":6799,"華":6800,"菰":6801,"菱":6802,"菲":6803,"菴":6804,"菸":6805,"萃":6806,"萄":6807,"萇":6808,"萊":6809,"萌":6810,"萍":6811,"萎":6812,"萘":6813,"萝":6814,"萤":6815,"营":6816,"萧":6817,"萨":6818,"萩":6819,"萬":6820,"萱":6821,"萸":6822,"萼":6823,"落":6824,"葆":6825,"葉":6826,"著":6827,"葛":6828,"葡":6829,"董":6830,"葦":6831,"葫":6832,"葬":6833,"葭":6834,"葱":6835,"葳":6836,"葵":6837,"葺":6838,"蒂":6839,"蒋":6840,"蒐":6841,"蒔":6842,"蒙":6843,"蒜":6844,"蒞":6845,"蒨":6846,"蒯":6847,"蒲":6848,"蒴":6849,"蒸":6850,"蒼":6851,"蒿":6852,"蓀":6853,"蓁":6854,"蓄":6855,"蓉":6856,"蓋":6857,"蓑":6858,"蓓":6859,"蓝":6860,"蓟":6861,"蓬":6862,"蓮":6863,"蓼":6864,"蔑":6865,"蔓":6866,"蔔":6867,"蔗":6868,"蔚":6869,"蔡":6870,"蔣":6871,"蔥":6872,"蔦":6873,"蔬":6874,"蔭":6875,"蔵":6876,"蔷":6877,"蔻":6878,"蔽":6879,"蕁":6880,"蕃":6881,"蕈":6882,"蕉":6883,"蕊":6884,"蕎":6885,"蕗":6886,"蕙":6887,"蕨":6888,"蕩":6889,"蕪":6890,"蕭":6891,"蕲":6892,"蕴":6893,"蕾":6894,"薄":6895,"薇":6896,"薈":6897,"薊":6898,"薑":6899,"薔":6900,"薗":6901,"薙":6902,"薛":6903,"薦":6904,"薨":6905,"薩":6906,"薪":6907,"薫":6908,"薬":6909,"薮":6910,"薯":6911,"薰":6912,"薹":6913,"藁":6914,"藉":6915,"藍":6916,"藏":6917,"藐":6918,"藓":6919,"藔":6920,"藕":6921,"藜":6922,"藝":6923,"藤":6924,"藥":6925,"藩":6926,"藪":6927,"藹":6928,"藺":6929,"藻":6930,"蘂":6931,"蘄":6932,"蘆":6933,"蘇":6934,"蘊":6935,"蘋":6936,"蘑":6937,"蘚":6938,"蘭":6939,"蘿":6940,"虎":6941,"虏":6942,"虐":6943,"虑":6944,"虔":6945,"處":6946,"虚":6947,"虛":6948,"虜":6949,"虞":6950,"號":6951,"虢":6952,"虧":6953,"虫":6954,"虬":6955,"虱":6956,"虹":6957,"虻":6958,"虽":6959,"虾":6960,"蚀":6961,"蚁":6962,"蚂":6963,"蚊":6964,"蚌":6965,"蚓":6966,"蚕":6967,"蚜":6968,"蚝":6969,"蚣":6970,"蚤":6971,"蚩":6972,"蚪":6973,"蚬":6974,"蚵":6975,"蚶":6976,"蛇":6977,"蛉":6978,"蛊":6979,"蛋":6980,"蛍":6981,"蛎":6982,"蛙":6983,"蛛":6984,"蛞":6985,"蛟":6986,"蛤":6987,"蛭":6988,"蛮":6989,"蛯":6990,"蛱":6991,"蛸":6992,"蛹":6993,"蛺":6994,"蛻":6995,"蛾":6996,"蜀":6997,"蜂":6998,"蜃":6999,"蜆":7000,"蜈":7001,"蜍":7002,"蜒":7003,"蜓":7004,"蜕":7005,"蜗":7006,"蜘":7007,"蜚":7008,"蜜":7009,"蜡":7010,"蜢":7011,"蜥":7012,"蜱":7013,"蜴":7014,"蜷":7015,"蜻":7016,"蜿":7017,"蝇":7018,"蝉":7019,"蝋":7020,"蝌":7021,"蝎":7022,"蝓":7023,"蝕":7024,"蝗":7025,"蝙":7026,"蝠":7027,"蝦":7028,"蝨":7029,"蝮":7030,"蝰":7031,"蝴":7032,"蝶":7033,"蝸":7034,"蝽":7035,"螂":7036,"螃":7037,"螈":7038,"融":7039,"螞":7040,"螢":7041,"螯":7042,"螳":7043,"螺":7044,"蟄":7045,"蟆":7046,"蟋":7047,"蟑":7048,"蟒":7049,"蟠":7050,"蟬":7051,"蟲":7052,"蟹":7053,"蟻":7054,"蟾":7055,"蠅":7056,"蠍":7057,"蠕":7058,"蠟":7059,"蠡":7060,"蠢":7061,"蠣":7062,"蠱":7063,"蠶":7064,"蠻":7065,"血":7066,"衅":7067,"衆":7068,"行":7069,"衍":7070,"術":7071,"衔":7072,"街":7073,"衙":7074,"衛":7075,"衝":7076,"衞":7077,"衡":7078,"衢":7079,"衣":7080,"补":7081,"表":7082,"衫":7083,"衬":7084,"衮":7085,"衰":7086,"衷":7087,"衿":7088,"袁":7089,"袂":7090,"袈":7091,"袋":7092,"袍":7093,"袒":7094,"袖":7095,"袜":7096,"袞":7097,"被":7098,"袭":7099,"袱":7100,"袴":7101,"裁":7102,"裂":7103,"装":7104,"裏":7105,"裔":7106,"裕":7107,"裘":7108,"裙":7109,"補":7110,"裝":7111,"裟":7112,"裡":7113,"裤":7114,"裨":7115,"裳":7116,"裴":7117,"裸":7118,"裹":7119,"製":7120,"裾":7121,"複":7122,"褐":7123,"褒":7124,"褚":7125,"褥":7126,"褪":7127,"褫":7128,"褲":7129,"褶":7130,"褻":7131,"襄":7132,"襖":7133,"襟":7134,"襪":7135,"襯":7136,"襲":7137,"西":7138,"要":7139,"覃":7140,"覆":7141,"覇":7142,"見":7143,"規":7144,"覓":7145,"視":7146,"覗":7147,"覚":7148,"覧":7149,"親":7150,"覲":7151,"観":7152,"覺":7153,"覽":7154,"觀":7155,"见":7156,"观":7157,"规":7158,"觅":7159,"视":7160,"览":7161,"觉":7162,"觐":7163,"角":7164,"解":7165,"触":7166,"觸":7167,"言":7168,"訂":7169,"訃":7170,"計":7171,"訊":7172,"討":7173,"訓":7174,"訖":7175,"託":7176,"記":7177,"訛":7178,"訝":7179,"訟":7180,"訣":7181,"訥":7182,"訪":7183,"設":7184,"許":7185,"訳":7186,"訴":7187,"訶":7188,"診":7189,"註":7190,"証":7191,"詐":7192,"詔":7193,"評":7194,"詛":7195,"詞":7196,"詠":7197,"詡":7198,"詢":7199,"詣":7200,"試":7201,"詩":7202,"詫":7203,"詭":7204,"詮":7205,"詰":7206,"話":7207,"該":7208,"詳":7209,"詹":7210,"誅":7211,"誇":7212,"誉":7213,"誌":7214,"認":7215,"誑":7216,"誓":7217,"誕":7218,"誘":7219,"語":7220,"誠":7221,"誡":7222,"誣":7223,"誤":7224,"誥":7225,"誦":7226,"誨":7227,"說":7228,"説":7229,"読":7230,"誰":7231,"課":7232,"誹":7233,"誼":7234,"調":7235,"諂":7236,"談":7237,"請":7238,"諌":7239,"諍":7240,"諏":7241,"諒":7242,"論":7243,"諜":7244,"諡":7245,"諦":7246,"諧":7247,"諫":7248,"諭":7249,"諮":7250,"諱":7251,"諶":7252,"諷":7253,"諸":7254,"諺":7255,"諾":7256,"謀":7257,"謁":7258,"謂":7259,"謄":7260,"謊":7261,"謎":7262,"謐":7263,"謗":7264,"謙":7265,"謚":7266,"講":7267,"謝":7268,"謠":7269,"謡":7270,"謨":7271,"謫":7272,"謬":7273,"謳":7274,"謹":7275,"證":7276,"譏":7277,"識":7278,"譙":7279,"譚":7280,"譜":7281,"警":7282,"譬":7283,"譯":7284,"議":7285,"譲":7286,"譴":7287,"護":7288,"譽":7289,"讀":7290,"讃":7291,"變":7292,"讐":7293,"讒":7294,"讓":7295,"讚":7296,"讞":7297,"计":7298,"订":7299,"认":7300,"讥":7301,"讨":7302,"让":7303,"讫":7304,"训":7305,"议":7306,"讯":7307,"记":7308,"讲":7309,"讳":7310,"讶":7311,"讷":7312,"许":7313,"讹":7314,"论":7315,"讼":7316,"讽":7317,"设":7318,"访":7319,"诀":7320,"证":7321,"诃":7322,"评":7323,"诅":7324,"识":7325,"诈":7326,"诉":7327,"诊":7328,"词":7329,"诏":7330,"译":7331,"诒":7332,"试":7333,"诗":7334,"诘":7335,"诚":7336,"诛":7337,"话":7338,"诞":7339,"诠":7340,"诡":7341,"询":7342,"诣":7343,"该":7344,"详":7345,"诩":7346,"诫":7347,"诬":7348,"语":7349,"误":7350,"诰":7351,"诱":7352,"诲":7353,"说":7354,"诵":7355,"请":7356,"诸":7357,"诹":7358,"诺":7359,"读":7360,"诽":7361,"课":7362,"谁":7363,"调":7364,"谅":7365,"谈":7366,"谊":7367,"谋":7368,"谍":7369,"谎":7370,"谏":7371,"谐":7372,"谒":7373,"谓":7374,"谔":7375,"谕":7376,"谚":7377,"谛":7378,"谜":7379,"谟":7380,"谢":7381,"谣":7382,"谤":7383,"谥":7384,"谦":7385,"谨":7386,"谪":7387,"谬":7388,"谭":7389,"谯":7390,"谱":7391,"谳":7392,"谴":7393,"谷":7394,"谿":7395,"豁":7396,"豆":7397,"豈":7398,"豊":7399,"豌":7400,"豎":7401,"豐":7402,"豔":7403,"豚":7404,"象":7405,"豪":7406,"豫":7407,"豬":7408,"豹":7409,"豺":7410,"貂":7411,"貌":7412,"貓":7413,"貘":7414,"貝":7415,"貞":7416,"負":7417,"財":7418,"貢":7419,"貧":7420,"貨":7421,"販":7422,"貪":7423,"貫":7424,"責":7425,"貯":7426,"貰":7427,"貳":7428,"貴":7429,"貶":7430,"買":7431,"貸":7432,"費":7433,"貼":7434,"貽":7435,"貿":7436,"賀":7437,"賁":7438,"賂":7439,"賃":7440,"賄":7441,"資":7442,"賈":7443,"賊":7444,"賑":7445,"賓":7446,"賚":7447,"賛":7448,"賜":7449,"賞":7450,"賠":7451,"賡":7452,"賢":7453,"賣":7454,"賤":7455,"賦":7456,"質":7457,"賭":7458,"賴":7459,"賺":7460,"購":7461,"賽":7462,"贄":7463,"贅":7464,"贈":7465,"贊":7466,"贋":7467,"贍":7468,"贏":7469,"贓":7470,"贖":7471,"贛":7472,"贝":7473,"贞":7474,"负":7475,"贡":7476,"财":7477,"责":7478,"贤":7479,"败":7480,"账":7481,"货":7482,"质":7483,"贩":7484,"贪":7485,"贫":7486,"贬":7487,"购":7488,"贮":7489,"贯":7490,"贰":7491,"贱":7492,"贲":7493,"贴":7494,"贵":7495,"贷":7496,"贸":7497,"费":7498,"贺":7499,"贻":7500,"贼":7501,"贾":7502,"贿":7503,"赁":7504,"赂":7505,"赃":7506,"资":7507,"赈":7508,"赉":7509,"赋":7510,"赌":7511,"赎":7512,"赏":7513,"赐":7514,"赓":7515,"赔":7516,"赖":7517,"赚":7518,"赛":7519,"赞":7520,"赠":7521,"赢":7522,"赣":7523,"赤":7524,"赦":7525,"赫":7526,"赭":7527,"走":7528,"赳":7529,"赴":7530,"赵":7531,"赶":7532,"起":7533,"趁":7534,"超":7535,"越":7536,"趋":7537,"趕":7538,"趙":7539,"趟":7540,"趣":7541,"趨":7542,"足":7543,"趴":7544,"趾":7545,"跃":7546,"跆":7547,"跋":7548,"跌":7549,"跑":7550,"跖":7551,"跛":7552,"距":7553,"跟":7554,"跡":7555,"跤":7556,"跨":7557,"跪":7558,"路":7559,"跳":7560,"践":7561,"跻":7562,"踊":7563,"踏":7564,"踐":7565,"踝":7566,"踞":7567,"踢":7568,"踩":7569,"踪":7570,"踴":7571,"踵":7572,"蹂":7573,"蹄":7574,"蹇":7575,"蹈":7576,"蹊":7577,"蹟":7578,"蹤":7579,"蹦":7580,"蹲":7581,"蹴":7582,"蹼":7583,"躁":7584,"躇":7585,"躊":7586,"躋":7587,"躍":7588,"躙":7589,"身":7590,"躬":7591,"躯":7592,"躲":7593,"躺":7594,"軀":7595,"車":7596,"軋":7597,"軌":7598,"軍":7599,"軒":7600,"軔":7601,"軛":7602,"軟":7603,"転":7604,"軫":7605,"軸":7606,"軻":7607,"軼":7608,"軽":7609,"軾":7610,"較":7611,"載":7612,"輌":7613,"輒":7614,"輓":7615,"輔":7616,"輕":7617,"輛":7618,"輜":7619,"輝":7620,"輟":7621,"輦":7622,"輩":7623,"輪":7624,"輯":7625,"輸":7626,"輻":7627,"輾":7628,"輿":7629,"轄":7630,"轅":7631,"轉":7632,"轍":7633,"轎":7634,"轟":7635,"轢":7636,"车":7637,"轧":7638,"轨":7639,"轩":7640,"转":7641,"轭":7642,"轮":7643,"软":7644,"轰":7645,"轴":7646,"轶":7647,"轸":7648,"轻":7649,"轼":7650,"载":7651,"轿":7652,"较":7653,"辄":7654,"辅":7655,"辆":7656,"辈":7657,"辉":7658,"辍":7659,"辐":7660,"辑":7661,"输":7662,"辕":7663,"辖":7664,"辗":7665,"辙":7666,"辛":7667,"辜":7668,"辞":7669,"辟":7670,"辣":7671,"辦":7672,"辨":7673,"辩":7674,"辫":7675,"辭":7676,"辮":7677,"辯":7678,"辰":7679,"辱":7680,"農":7681,"边":7682,"辺":7683,"辻":7684,"込":7685,"辽":7686,"达":7687,"辿":7688,"迁":7689,"迂":7690,"迄":7691,"迅":7692,"过":7693,"迈":7694,"迎":7695,"运":7696,"近":7697,"返":7698,"还":7699,"这":7700,"进":7701,"远":7702,"违":7703,"连":7704,"迟":7705,"迥":7706,"迦":7707,"迩":7708,"迪":7709,"迫":7710,"迭":7711,"述":7712,"迴":7713,"迷":7714,"迹":7715,"迺":7716,"追":7717,"退":7718,"送":7719,"适":7720,"逃":7721,"逅":7722,"逆":7723,"选":7724,"逊":7725,"逍":7726,"透":7727,"逐":7728,"递":7729,"逓":7730,"途":7731,"逕":7732,"逗":7733,"這":7734,"通":7735,"逛":7736,"逝":7737,"逞":7738,"速":7739,"造":7740,"逢":7741,"連":7742,"逮":7743,"週":7744,"進":7745,"逵":7746,"逸":7747,"逻":7748,"逼":7749,"逾":7750,"遁":7751,"遂":7752,"遅":7753,"遇":7754,"遊":7755,"運":7756,"遍":7757,"過":7758,"遏":7759,"遐":7760,"道":7761,"達":7762,"違":7763,"遗":7764,"遙":7765,"遜":7766,"遞":7767,"遠":7768,"遡":7769,"遣":7770,"遥":7771,"適":7772,"遭":7773,"遮":7774,"遲":7775,"遴":7776,"遵":7777,"遷":7778,"選":7779,"遹":7780,"遺":7781,"遼":7782,"遽":7783,"避":7784,"邀":7785,"邁":7786,"邂":7787,"邃":7788,"還":7789,"邇":7790,"邈":7791,"邉":7792,"邊":7793,"邏":7794,"邑":7795,"邓":7796,"邕":7797,"邛":7798,"邝":7799,"邠":7800,"邢":7801,"那":7802,"邦":7803,"邨":7804,"邪":7805,"邬":7806,"邮":7807,"邯":7808,"邰":7809,"邱":7810,"邳":7811,"邵":7812,"邸":7813,"邹":7814,"邺":7815,"邻":7816,"邾":7817,"郁":7818,"郃":7819,"郊":7820,"郎":7821,"郑":7822,"郗":7823,"郜":7824,"郝":7825,"郞":7826,"郡":7827,"郢":7828,"郤":7829,"郧":7830,"部":7831,"郭":7832,"郯":7833,"郴":7834,"郵":7835,"郷":7836,"郸":7837,"都":7838,"鄂":7839,"鄉":7840,"鄒":7841,"鄔":7842,"鄕":7843,"鄖":7844,"鄙":7845,"鄚":7846,"鄞":7847,"鄢":7848,"鄧":7849,"鄭":7850,"鄯":7851,"鄰":7852,"鄱":7853,"鄲":7854,"鄴":7855,"鄺":7856,"酉":7857,"酋":7858,"酌":7859,"配":7860,"酎":7861,"酐":7862,"酒":7863,"酔":7864,"酗":7865,"酚":7866,"酢":7867,"酣":7868,"酥":7869,"酪":7870,"酬":7871,"酮":7872,"酯":7873,"酰":7874,"酱":7875,"酵":7876,"酶":7877,"酷":7878,"酸":7879,"酿":7880,"醃":7881,"醇":7882,"醉":7883,"醋":7884,"醍":7885,"醐":7886,"醒":7887,"醚":7888,"醛":7889,"醜":7890,"醣":7891,"醤":7892,"醫":7893,"醬":7894,"醮":7895,"醯":7896,"醴":7897,"醸":7898,"釀":7899,"釁":7900,"采":7901,"釈":7902,"釉":7903,"释":7904,"釋":7905,"里":7906,"重":7907,"野":7908,"量":7909,"釐":7910,"金":7911,"釗":7912,"釘":7913,"釜":7914,"針":7915,"釣":7916,"釧":7917,"釵":7918,"鈉":7919,"鈍":7920,"鈔":7921,"鈕":7922,"鈞":7923,"鈣":7924,"鈦":7925,"鈴":7926,"鈷":7927,"鈺":7928,"鈾":7929,"鈿":7930,"鉀":7931,"鉄":7932,"鉅":7933,"鉈":7934,"鉉":7935,"鉑":7936,"鉗":7937,"鉛":7938,"鉞":7939,"鉢":7940,"鉤":7941,"鉱":7942,"鉴":7943,"鉻":7944,"鉾":7945,"銀":7946,"銃":7947,"銅":7948,"銑":7949,"銓":7950,"銖":7951,"銘":7952,"銚":7953,"銜":7954,"銨":7955,"銭":7956,"銮":7957,"銳":7958,"銷":7959,"銹":7960,"鋁":7961,"鋅":7962,"鋏":7963,"鋒":7964,"鋤":7965,"鋪":7966,"鋭":7967,"鋰":7968,"鋳":7969,"鋸":7970,"鋼":7971,"錄":7972,"錆":7973,"錐":7974,"錕":7975,"錘":7976,"錚":7977,"錠":7978,"錢":7979,"錦":7980,"錨":7981,"錫":7982,"錬":7983,"錮":7984,"錯":7985,"録":7986,"錳":7987,"錶":7988,"鍊":7989,"鍋":7990,"鍍":7991,"鍔":7992,"鍛":7993,"鍬":7994,"鍮":7995,"鍵":7996,"鍼":7997,"鍾":7998,"鎂":7999,"鎊":8000,"鎌":8001,"鎏":8002,"鎔":8003,"鎖":8004,"鎗":8005,"鎚":8006,"鎢":8007,"鎧":8008,"鎬":8009,"鎭":8010,"鎮":8011,"鎳":8012,"鏃":8013,"鏈":8014,"鏑":8015,"鏗":8016,"鏞":8017,"鏟":8018,"鏡":8019,"鏢":8020,"鏽":8021,"鐘":8022,"鐮":8023,"鐳":8024,"鐵":8025,"鐸":8026,"鑄":8027,"鑑":8028,"鑒":8029,"鑣":8030,"鑫":8031,"鑰":8032,"鑲":8033,"鑼":8034,"鑽":8035,"鑾":8036,"鑿":8037,"针":8038,"钉":8039,"钊":8040,"钏":8041,"钓":8042,"钗":8043,"钙":8044,"钚":8045,"钛":8046,"钜":8047,"钝":8048,"钞":8049,"钟":8050,"钠":8051,"钢":8052,"钥":8053,"钦":8054,"钧":8055,"钨":8056,"钩":8057,"钮":8058,"钰":8059,"钱":8060,"钳":8061,"钴":8062,"钵":8063,"钺":8064,"钻":8065,"钾":8066,"铀":8067,"铁":8068,"铂":8069,"铃":8070,"铅":8071,"铉":8072,"铎":8073,"铜":8074,"铝":8075,"铠":8076,"铨":8077,"铬":8078,"铭":8079,"铮":8080,"铲":8081,"铳":8082,"铵":8083,"银":8084,"铸":8085,"铺":8086,"链":8087,"铿":8088,"销":8089,"锁":8090,"锂":8091,"锄":8092,"锅":8093,"锈":8094,"锋":8095,"锌":8096,"锐":8097,"错":8098,"锚":8099,"锟":8100,"锡":8101,"锢":8102,"锣":8103,"锤":8104,"锥":8105,"锦":8106,"锭":8107,"键":8108,"锯":8109,"锰":8110,"锷":8111,"锺":8112,"锻":8113,"镀":8114,"镁":8115,"镇":8116,"镍":8117,"镐":8118,"镑":8119,"镕":8120,"镖":8121,"镛":8122,"镜":8123,"镭":8124,"镰":8125,"镶":8126,"長":8127,"长":8128,"門":8129,"閃":8130,"閆":8131,"閉":8132,"開":8133,"閏":8134,"閑":8135,"閒":8136,"間":8137,"閔":8138,"閘":8139,"関":8140,"閣":8141,"閤":8142,"閥":8143,"閨":8144,"閩":8145,"閬":8146,"閭":8147,"閱":8148,"閲":8149,"閻":8150,"閾":8151,"闆":8152,"闇":8153,"闊":8154,"闍":8155,"闐":8156,"闕":8157,"闖":8158,"闘":8159,"關":8160,"闡":8161,"闢":8162,"门":8163,"闪":8164,"闫":8165,"闭":8166,"问":8167,"闯":8168,"闰":8169,"闲":8170,"间":8171,"闵":8172,"闷":8173,"闸":8174,"闹":8175,"闺":8176,"闻":8177,"闽":8178,"闾":8179,"阀":8180,"阁":8181,"阅":8182,"阆":8183,"阇":8184,"阉":8185,"阎":8186,"阐":8187,"阔":8188,"阗":8189,"阙":8190,"阜":8191,"队":8192,"阡":8193,"阪":8194,"阮":8195,"阯":8196,"阱":8197,"防":8198,"阳":8199,"阴":8200,"阵":8201,"阶":8202,"阻":8203,"阿":8204,"陀":8205,"陂":8206,"附":8207,"际":8208,"陆":8209,"陇":8210,"陈":8211,"陋":8212,"陌":8213,"降":8214,"限":8215,"陕":8216,"陛":8217,"陝":8218,"陞":8219,"陟":8220,"陡":8221,"院":8222,"陣":8223,"除":8224,"陥":8225,"陨":8226,"险":8227,"陪":8228,"陰":8229,"陲":8230,"陳":8231,"陵":8232,"陶":8233,"陷":8234,"陸":8235,"険":8236,"陽":8237,"隅":8238,"隆":8239,"隈":8240,"隊":8241,"隋":8242,"隍":8243,"階":8244,"随":8245,"隐":8246,"隔":8247,"隕":8248,"隗":8249,"隘":8250,"隙":8251,"際":8252,"障":8253,"隠":8254,"隣":8255,"隧":8256,"隨":8257,"險":8258,"隱":8259,"隴":8260,"隶":8261,"隷":8262,"隸":8263,"隻":8264,"隼":8265,"隽":8266,"难":8267,"雀":8268,"雁":8269,"雄":8270,"雅":8271,"集":8272,"雇":8273,"雉":8274,"雋":8275,"雌":8276,"雍":8277,"雏":8278,"雑":8279,"雒":8280,"雕":8281,"雖":8282,"雙":8283,"雛":8284,"雜":8285,"雞":8286,"離":8287,"難":8288,"雨":8289,"雪":8290,"雫":8291,"雯":8292,"雰":8293,"雲":8294,"雳":8295,"零":8296,"雷":8297,"雹":8298,"電":8299,"雾":8300,"需":8301,"霄":8302,"霆":8303,"震":8304,"霉":8305,"霊":8306,"霍":8307,"霏":8308,"霑":8309,"霓":8310,"霖":8311,"霜":8312,"霞":8313,"霧":8314,"霰":8315,"露":8316,"霸":8317,"霹":8318,"霽":8319,"霾":8320,"靂":8321,"靄":8322,"靈":8323,"靑":8324,"青":8325,"靓":8326,"靖":8327,"静":8328,"靚":8329,"靛":8330,"靜":8331,"非":8332,"靠":8333,"靡":8334,"面":8335,"革":8336,"靭":8337,"靱":8338,"靳":8339,"靴":8340,"靶":8341,"靺":8342,"靼":8343,"鞄":8344,"鞅":8345,"鞆":8346,"鞋":8347,"鞍":8348,"鞏":8349,"鞑":8350,"鞘":8351,"鞠":8352,"鞨":8353,"鞭":8354,"鞮":8355,"韃":8356,"韋":8357,"韌":8358,"韓":8359,"韜":8360,"韦":8361,"韧":8362,"韩":8363,"韬":8364,"韭":8365,"韮":8366,"音":8367,"韵":8368,"韶":8369,"韻":8370,"響":8371,"頁":8372,"頂":8373,"頃":8374,"項":8375,"順":8376,"須":8377,"頊":8378,"頌":8379,"預":8380,"頑":8381,"頒":8382,"頓":8383,"頗":8384,"領":8385,"頚":8386,"頜":8387,"頡":8388,"頤":8389,"頬":8390,"頭":8391,"頰":8392,"頸":8393,"頹":8394,"頻":8395,"頼":8396,"顆":8397,"題":8398,"額":8399,"顎":8400,"顏":8401,"顒":8402,"顔":8403,"顕":8404,"顗":8405,"願":8406,"顛":8407,"類":8408,"顥":8409,"顧":8410,"顫":8411,"顯":8412,"顱":8413,"页":8414,"顶":8415,"顷":8416,"项":8417,"顺":8418,"须":8419,"顽":8420,"顾":8421,"顿":8422,"颁":8423,"颂":8424,"预":8425,"颅":8426,"领":8427,"颇":8428,"颈":8429,"颉":8430,"颊":8431,"颌":8432,"颍":8433,"颐":8434,"频":8435,"颓":8436,"颖":8437,"颗":8438,"题":8439,"颚":8440,"颜":8441,"额":8442,"颠":8443,"颤":8444,"風":8445,"颯":8446,"颱":8447,"颶":8448,"飄":8449,"飆":8450,"风":8451,"飒":8452,"飓":8453,"飘":8454,"飙":8455,"飛":8456,"飞":8457,"食":8458,"飢":8459,"飪":8460,"飯":8461,"飲":8462,"飴":8463,"飼":8464,"飽":8465,"飾":8466,"餃":8467,"餅":8468,"餉":8469,"養":8470,"餌":8471,"餐":8472,"餓":8473,"餘":8474,"餚":8475,"餡":8476,"館":8477,"餵":8478,"餾":8479,"饅":8480,"饉":8481,"饋":8482,"饌":8483,"饑":8484,"饒":8485,"饗":8486,"饥":8487,"饪":8488,"饭":8489,"饮":8490,"饰":8491,"饱":8492,"饲":8493,"饵":8494,"饶":8495,"饷":8496,"饺":8497,"饼":8498,"饿":8499,"馀":8500,"馅":8501,"馆":8502,"馈":8503,"馏":8504,"首":8505,"馗":8506,"香":8507,"馥":8508,"馨":8509,"馬":8510,"馭":8511,"馮":8512,"馱":8513,"馳":8514,"馴":8515,"駁":8516,"駄":8517,"駅":8518,"駆":8519,"駐":8520,"駒":8521,"駕":8522,"駙":8523,"駛":8524,"駝":8525,"駭":8526,"駱":8527,"駿":8528,"騎":8529,"騒":8530,"験":8531,"騙":8532,"騨":8533,"騫":8534,"騰":8535,"騷":8536,"驃":8537,"驅":8538,"驊":8539,"驍":8540,"驒":8541,"驕":8542,"驗":8543,"驚":8544,"驛":8545,"驟":8546,"驢":8547,"驤":8548,"驥":8549,"驪":8550,"马":8551,"驭":8552,"驮":8553,"驯":8554,"驰":8555,"驱":8556,"驳":8557,"驴":8558,"驶":8559,"驸":8560,"驹":8561,"驻":8562,"驼":8563,"驾":8564,"驿":8565,"骁":8566,"骂":8567,"骄":8568,"骅":8569,"骆":8570,"骇":8571,"骊":8572,"验":8573,"骏":8574,"骑":8575,"骗":8576,"骚":8577,"骞":8578,"骠":8579,"骤":8580,"骥":8581,"骧":8582,"骨":8583,"骰":8584,"骷":8585,"骸":8586,"骼":8587,"髄":8588,"髅":8589,"髏":8590,"髑":8591,"髒":8592,"髓":8593,"體":8594,"高":8595,"髙":8596,"髦":8597,"髪":8598,"髭":8599,"髮":8600,"髯":8601,"髷":8602,"髻":8603,"鬃":8604,"鬆":8605,"鬍":8606,"鬘":8607,"鬚":8608,"鬣":8609,"鬥":8610,"鬧":8611,"鬱":8612,"鬼":8613,"魁":8614,"魂":8615,"魃":8616,"魄":8617,"魅":8618,"魍":8619,"魎":8620,"魏":8621,"魔":8622,"魚":8623,"魨":8624,"魮":8625,"魯":8626,"魷":8627,"鮃":8628,"鮋":8629,"鮎":8630,"鮑":8631,"鮟":8632,"鮠":8633,"鮡":8634,"鮨":8635,"鮫":8636,"鮭":8637,"鮮":8638,"鯉":8639,"鯊":8640,"鯖":8641,"鯙":8642,"鯛":8643,"鯡":8644,"鯤":8645,"鯨":8646,"鯰":8647,"鯱":8648,"鯽":8649,"鰂":8650,"鰈":8651,"鰍":8652,"鰐":8653,"鰓":8654,"鰕":8655,"鰨":8656,"鰭":8657,"鰲":8658,"鰹":8659,"鰺":8660,"鰻":8661,"鱂":8662,"鱇":8663,"鱈":8664,"鱉":8665,"鱒":8666,"鱔":8667,"鱗":8668,"鱧":8669,"鱨":8670,"鱲":8671,"鱷":8672,"鱸":8673,"鱼":8674,"鱿":8675,"鲀":8676,"鲁":8677,"鲆":8678,"鲇":8679,"鲈":8680,"鲉":8681,"鲍":8682,"鲑":8683,"鲛":8684,"鲜":8685,"鲤":8686,"鲨":8687,"鲫":8688,"鲱":8689,"鲶":8690,"鲷":8691,"鲸":8692,"鲽":8693,"鲿":8694,"鳃":8695,"鳄":8696,"鳅":8697,"鳉":8698,"鳌":8699,"鳍":8700,"鳎":8701,"鳕":8702,"鳖":8703,"鳗":8704,"鳚":8705,"鳝":8706,"鳞":8707,"鳢":8708,"鳥":8709,"鳩":8710,"鳳":8711,"鳴":8712,"鳶":8713,"鴇":8714,"鴉":8715,"鴎":8716,"鴛":8717,"鴞":8718,"鴦":8719,"鴨":8720,"鴻":8721,"鴿":8722,"鵑":8723,"鵙":8724,"鵜":8725,"鵝":8726,"鵠":8727,"鵡":8728,"鵬":8729,"鵰":8730,"鵲":8731,"鶇":8732,"鶉":8733,"鶏":8734,"鶥":8735,"鶯":8736,"鶴":8737,"鶻":8738,"鷗":8739,"鷲":8740,"鷹":8741,"鷺":8742,"鸚":8743,"鸞":8744,"鸟":8745,"鸠":8746,"鸡":8747,"鸢":8748,"鸣":8749,"鸥":8750,"鸦":8751,"鸫":8752,"鸭":8753,"鸮":8754,"鸯":8755,"鸳":8756,"鸽":8757,"鸾":8758,"鸿":8759,"鹃":8760,"鹅":8761,"鹈":8762,"鹉":8763,"鹊":8764,"鹏":8765,"鹘":8766,"鹛":8767,"鹤":8768,"鹦":8769,"鹫":8770,"鹭":8771,"鹰":8772,"鹵":8773,"鹸":8774,"鹹":8775,"鹼":8776,"鹽":8777,"鹿":8778,"麋":8779,"麒":8780,"麓":8781,"麗":8782,"麝":8783,"麟":8784,"麤":8785,"麥":8786,"麦":8787,"麴":8788,"麵":8789,"麹":8790,"麺":8791,"麻":8792,"麼":8793,"麽":8794,"麾":8795,"麿":8796,"黃":8797,"黄":8798,"黍":8799,"黎":8800,"黏":8801,"黑":8802,"黒":8803,"黔":8804,"默":8805,"黙":8806,"黛":8807,"黜":8808,"點":8809,"黨":8810,"黯":8811,"黴":8812,"黻":8813,"鼎":8814,"鼐":8815,"鼓":8816,"鼠":8817,"鼩":8818,"鼬":8819,"鼻":8820,"齊":8821,"齋":8822,"齐":8823,"齒":8824,"齡":8825,"齢":8826,"齣":8827,"齦":8828,"齧":8829,"齿":8830,"龄":8831,"龈":8832,"龍":8833,"龐":8834,"龔":8835,"龕":8836,"龙":8837,"龚":8838,"龛":8839,"龜":8840,"龟":8841,"龢":8842,"가":8843,"각":8844,"간":8845,"갇":8846,"갈":8847,"감":8848,"갑":8849,"값":8850,"갓":8851,"갔":8852,"강":8853,"갖":8854,"같":8855,"갚":8856,"개":8857,"객":8858,"갤":8859,"갯":8860,"갱":8861,"걀":8862,"거":8863,"걱":8864,"건":8865,"걷":8866,"걸":8867,"검":8868,"겁":8869,"것":8870,"겉":8871,"게":8872,"겐":8873,"겔":8874,"겟":8875,"겠":8876,"겨":8877,"격":8878,"겪":8879,"견":8880,"결":8881,"겸":8882,"겹":8883,"겼":8884,"경":8885,"곁":8886,"계":8887,"고":8888,"곡":8889,"곤":8890,"곧":8891,"골":8892,"곰":8893,"곱":8894,"곳":8895,"공":8896,"곶":8897,"과":8898,"곽":8899,"관":8900,"괄":8901,"괌":8902,"광":8903,"괜":8904,"괴":8905,"굉":8906,"교":8907,"구":8908,"국":8909,"군":8910,"굳":8911,"굴":8912,"굵":8913,"굽":8914,"굿":8915,"궁":8916,"권":8917,"궐":8918,"궤":8919,"귀":8920,"귄":8921,"규":8922,"균":8923,"그":8924,"극":8925,"근":8926,"글":8927,"금":8928,"급":8929,"긋":8930,"긍":8931,"기":8932,"긴":8933,"길":8934,"김":8935,"깁":8936,"깃":8937,"깊":8938,"까":8939,"깎":8940,"깐":8941,"깔":8942,"깜":8943,"깝":8944,"깥":8945,"깨":8946,"꺼":8947,"꺾":8948,"껍":8949,"껏":8950,"께":8951,"껴":8952,"꼈":8953,"꼬":8954,"꼭":8955,"꼴":8956,"꼼":8957,"꼽":8958,"꽃":8959,"꽤":8960,"꾀":8961,"꾸":8962,"꾼":8963,"꿀":8964,"꿈":8965,"꿔":8966,"꿨":8967,"뀌":8968,"뀐":8969,"끄":8970,"끈":8971,"끊":8972,"끌":8973,"끓":8974,"끔":8975,"끗":8976,"끝":8977,"끼":8978,"낀":8979,"낄":8980,"낌":8981,"나":8982,"낙":8983,"난":8984,"날":8985,"낡":8986,"남":8987,"납":8988,"낫":8989,"났":8990,"낭":8991,"낮":8992,"낯":8993,"낱":8994,"낳":8995,"내":8996,"낸":8997,"낼":8998,"냄":8999,"냈":9000,"냉":9001,"냐":9002,"냥":9003,"너":9004,"넌":9005,"널":9006,"넓":9007,"넘":9008,"넛":9009,"넣":9010,"네":9011,"넥":9012,"넨":9013,"넬":9014,"넷":9015,"녀":9016,"녁":9017,"년":9018,"념":9019,"녔":9020,"녕":9021,"노":9022,"녹":9023,"논":9024,"놀":9025,"놈":9026,"농":9027,"높":9028,"놓":9029,"뇌":9030,"뇨":9031,"누":9032,"눅":9033,"눈":9034,"눌":9035,"눠":9036,"뉘":9037,"뉜":9038,"뉴":9039,"늄":9040,"느":9041,"늑":9042,"는":9043,"늘":9044,"늙":9045,"능":9046,"늦":9047,"늬":9048,"니":9049,"닉":9050,"닌":9051,"닐":9052,"님":9053,"닛":9054,"닝":9055,"다":9056,"닥":9057,"닦":9058,"단":9059,"닫":9060,"달":9061,"닭":9062,"닮":9063,"담":9064,"답":9065,"닷":9066,"당":9067,"닿":9068,"대":9069,"댄":9070,"댈":9071,"댐":9072,"댓":9073,"더":9074,"덕":9075,"던":9076,"덜":9077,"덟":9078,"덤":9079,"덧":9080,"덩":9081,"덮":9082,"데":9083,"덱":9084,"덴":9085,"델":9086,"도":9087,"독":9088,"돈":9089,"돋":9090,"돌":9091,"돔":9092,"돕":9093,"돗":9094,"동":9095,"돼":9096,"됐":9097,"되":9098,"된":9099,"될":9100,"됨":9101,"두":9102,"둑":9103,"둔":9104,"둘":9105,"둠":9106,"둥":9107,"뒀":9108,"뒤":9109,"뒷":9110,"듀":9111,"듈":9112,"드":9113,"득":9114,"든":9115,"듣":9116,"들":9117,"듬":9118,"듭":9119,"듯":9120,"등":9121,"디":9122,"딕":9123,"딘":9124,"딜":9125,"딥":9126,"딧":9127,"딩":9128,"딪":9129,"따":9130,"딱":9131,"딴":9132,"딸":9133,"땃":9134,"땄":9135,"땅":9136,"때":9137,"떠":9138,"떡":9139,"떤":9140,"떨":9141,"떻":9142,"떼":9143,"또":9144,"똑":9145,"뚜":9146,"뚝":9147,"뚫":9148,"뚱":9149,"뛰":9150,"뜨":9151,"뜬":9152,"뜻":9153,"띄":9154,"띠":9155,"띤":9156,"라":9157,"락":9158,"란":9159,"랄":9160,"람":9161,"랍":9162,"랐":9163,"랑":9164,"래":9165,"랙":9166,"랜":9167,"램":9168,"랩":9169,"랫":9170,"랬":9171,"랭":9172,"랴":9173,"략":9174,"량":9175,"러":9176,"럭":9177,"런":9178,"럴":9179,"럼":9180,"럽":9181,"럿":9182,"렀":9183,"렁":9184,"렇":9185,"레":9186,"렉":9187,"렌":9188,"렐":9189,"렘":9190,"렛":9191,"려":9192,"력":9193,"련":9194,"렬":9195,"렴":9196,"렵":9197,"렷":9198,"렸":9199,"령":9200,"례":9201,"로":9202,"록":9203,"론":9204,"롤":9205,"롬":9206,"롭":9207,"롯":9208,"롱":9209,"뢰":9210,"료":9211,"룡":9212,"루":9213,"룩":9214,"룬":9215,"룰":9216,"룸":9217,"룹":9218,"룻":9219,"룽":9220,"뤄":9221,"뤘":9222,"뤼":9223,"류":9224,"륙":9225,"륜":9226,"률":9227,"륨":9228,"륭":9229,"르":9230,"륵":9231,"른":9232,"를":9233,"름":9234,"릇":9235,"릉":9236,"릎":9237,"리":9238,"릭":9239,"린":9240,"릴":9241,"림":9242,"립":9243,"릿":9244,"링":9245,"마":9246,"막":9247,"만":9248,"많":9249,"맏":9250,"말":9251,"맑":9252,"맘":9253,"맛":9254,"망":9255,"맞":9256,"맡":9257,"매":9258,"맥":9259,"맨":9260,"맵":9261,"맷":9262,"맹":9263,"맺":9264,"머":9265,"먹":9266,"먼":9267,"멀":9268,"멈":9269,"멋":9270,"멍":9271,"메":9272,"멕":9273,"멘":9274,"멜":9275,"멤":9276,"멧":9277,"며":9278,"면":9279,"멸":9280,"명":9281,"몇":9282,"모":9283,"목":9284,"몫":9285,"몬":9286,"몰":9287,"몸":9288,"몹":9289,"못":9290,"몽":9291,"뫼":9292,"묘":9293,"무":9294,"묵":9295,"묶":9296,"문":9297,"묻":9298,"물":9299,"뭄":9300,"뭇":9301,"뭉":9302,"뭐":9303,"뭔":9304,"뮌":9305,"뮤":9306,"뮬":9307,"므":9308,"미":9309,"믹":9310,"민":9311,"믿":9312,"밀":9313,"밋":9314,"밍":9315,"및":9316,"밑":9317,"바":9318,"박":9319,"밖":9320,"반":9321,"받":9322,"발":9323,"밝":9324,"밟":9325,"밤":9326,"밥":9327,"방":9328,"밭":9329,"배":9330,"백":9331,"밴":9332,"밸":9333,"뱀":9334,"뱅":9335,"버":9336,"벅":9337,"번":9338,"벌":9339,"범":9340,"법":9341,"벗":9342,"벚":9343,"베":9344,"벡":9345,"벤":9346,"벨":9347,"벳":9348,"벵":9349,"벼":9350,"벽":9351,"변":9352,"별":9353,"볍":9354,"병":9355,"보":9356,"복":9357,"본":9358,"볼":9359,"봄":9360,"봇":9361,"봉":9362,"봐":9363,"봤":9364,"부":9365,"북":9366,"분":9367,"불":9368,"붉":9369,"붐":9370,"붓":9371,"붕":9372,"붙":9373,"뷔":9374,"뷰":9375,"브":9376,"븐":9377,"블":9378,"비":9379,"빅":9380,"빈":9381,"빌":9382,"빔":9383,"빗":9384,"빙":9385,"빚":9386,"빛":9387,"빠":9388,"빨":9389,"빵":9390,"빼":9391,"빽":9392,"뻐":9393,"뻔":9394,"뻗":9395,"뼈":9396,"뽑":9397,"뾰":9398,"뿌":9399,"뿐":9400,"뿔":9401,"쁘":9402,"쁜":9403,"쁨":9404,"사":9405,"삭":9406,"산":9407,"살":9408,"삶":9409,"삼":9410,"삽":9411,"삿":9412,"샀":9413,"상":9414,"새":9415,"색":9416,"샌":9417,"샐":9418,"샘":9419,"생":9420,"샤":9421,"샬":9422,"샹":9423,"섀":9424,"서":9425,"석":9426,"섞":9427,"선":9428,"설":9429,"섬":9430,"섭":9431,"섯":9432,"섰":9433,"성":9434,"세":9435,"섹":9436,"센":9437,"셀":9438,"셈":9439,"셉":9440,"셋":9441,"셔":9442,"션":9443,"셜":9444,"셨":9445,"셰":9446,"셸":9447,"소":9448,"속":9449,"손":9450,"솔":9451,"솜":9452,"솟":9453,"송":9454,"쇄":9455,"쇠":9456,"쇼":9457,"숀":9458,"숍":9459,"수":9460,"숙":9461,"순":9462,"술":9463,"숨":9464,"숫":9465,"숭":9466,"숲":9467,"쉐":9468,"쉬":9469,"쉴":9470,"쉽":9471,"슈":9472,"슌":9473,"슐":9474,"슘":9475,"슛":9476,"스":9477,"슨":9478,"슬":9479,"슭":9480,"슴":9481,"습":9482,"슷":9483,"승":9484,"시":9485,"식":9486,"신":9487,"싣":9488,"실":9489,"싫":9490,"심":9491,"십":9492,"싯":9493,"싱":9494,"싶":9495,"싸":9496,"싹":9497,"싼":9498,"쌀":9499,"쌍":9500,"쌓":9501,"써":9502,"썩":9503,"썬":9504,"썰":9505,"썼":9506,"쏘":9507,"쏜":9508,"쏟":9509,"쑤":9510,"쓰":9511,"쓴":9512,"쓸":9513,"씀":9514,"씌":9515,"씨":9516,"씩":9517,"씬":9518,"아":9519,"악":9520,"안":9521,"앉":9522,"않":9523,"알":9524,"앓":9525,"암":9526,"압":9527,"앗":9528,"았":9529,"앙":9530,"앞":9531,"애":9532,"액":9533,"앤":9534,"앨":9535,"앱":9536,"앵":9537,"야":9538,"약":9539,"얀":9540,"얄":9541,"얇":9542,"양":9543,"얕":9544,"얘":9545,"어":9546,"억":9547,"언":9548,"얹":9549,"얻":9550,"얼":9551,"얽":9552,"엄":9553,"업":9554,"없":9555,"엇":9556,"었":9557,"엉":9558,"에":9559,"엑":9560,"엔":9561,"엘":9562,"엠":9563,"엣":9564,"여":9565,"역":9566,"엮":9567,"연":9568,"열":9569,"염":9570,"엽":9571,"엿":9572,"였":9573,"영":9574,"옆":9575,"예":9576,"옌":9577,"옐":9578,"옛":9579,"오":9580,"옥":9581,"온":9582,"올":9583,"옮":9584,"옳":9585,"옴":9586,"옵":9587,"옷":9588,"옹":9589,"와":9590,"완":9591,"왈":9592,"왓":9593,"왔":9594,"왕":9595,"왜":9596,"외":9597,"왼":9598,"요":9599,"욕":9600,"욘":9601,"욤":9602,"용":9603,"우":9604,"욱":9605,"운":9606,"울":9607,"움":9608,"웃":9609,"웅":9610,"워":9611,"원":9612,"월":9613,"웠":9614,"웨":9615,"웬":9616,"웰":9617,"웹":9618,"위":9619,"윅":9620,"윈":9621,"윌":9622,"윗":9623,"윙":9624,"유":9625,"육":9626,"윤":9627,"율":9628,"융":9629,"으":9630,"윽":9631,"은":9632,"을":9633,"음":9634,"읍":9635,"응":9636,"의":9637,"이":9638,"익":9639,"인":9640,"일":9641,"읽":9642,"잃":9643,"임":9644,"입":9645,"잇":9646,"있":9647,"잉":9648,"잊":9649,"잎":9650,"자":9651,"작":9652,"잔":9653,"잘":9654,"잠":9655,"잡":9656,"장":9657,"잦":9658,"재":9659,"잭":9660,"쟁":9661,"쟈":9662,"저":9663,"적":9664,"전":9665,"절":9666,"젊":9667,"점":9668,"접":9669,"정":9670,"젖":9671,"제":9672,"젝":9673,"젠":9674,"젤":9675,"져":9676,"졌":9677,"조":9678,"족":9679,"존":9680,"졸":9681,"좀":9682,"좁":9683,"종":9684,"좋":9685,"좌":9686,"죄":9687,"죠":9688,"주":9689,"죽":9690,"준":9691,"줄":9692,"줌":9693,"중":9694,"줘":9695,"줬":9696,"쥐":9697,"쥬":9698,"쥰":9699,"즈":9700,"즉":9701,"즌":9702,"즐":9703,"즘":9704,"증":9705,"지":9706,"직":9707,"진":9708,"질":9709,"짐":9710,"집":9711,"짓":9712,"징":9713,"짙":9714,"짜":9715,"짝":9716,"짧":9717,"짱":9718,"째":9719,"쩌":9720,"쩔":9721,"쪽":9722,"쫓":9723,"쭉":9724,"쯔":9725,"쯤":9726,"찌":9727,"찍":9728,"찔":9729,"차":9730,"착":9731,"찬":9732,"찮":9733,"찰":9734,"참":9735,"창":9736,"찾":9737,"채":9738,"책":9739,"챈":9740,"챌":9741,"챔":9742,"챙":9743,"처":9744,"척":9745,"천":9746,"철":9747,"첨":9748,"첩":9749,"첫":9750,"청":9751,"체":9752,"첸":9753,"첼":9754,"쳐":9755,"쳤":9756,"초":9757,"촉":9758,"촌":9759,"촛":9760,"총":9761,"촨":9762,"촬":9763,"최":9764,"추":9765,"축":9766,"춘":9767,"출":9768,"춤":9769,"충":9770,"춰":9771,"췌":9772,"취":9773,"츄":9774,"츠":9775,"측":9776,"츰":9777,"층":9778,"치":9779,"칙":9780,"친":9781,"칠":9782,"침":9783,"칩":9784,"칭":9785,"카":9786,"칸":9787,"칼":9788,"캄":9789,"캅":9790,"캉":9791,"캐":9792,"캔":9793,"캘":9794,"캠":9795,"캡":9796,"캣":9797,"커":9798,"컨":9799,"컫":9800,"컬":9801,"컴":9802,"컵":9803,"컷":9804,"컸":9805,"케":9806,"켄":9807,"켈":9808,"켓":9809,"켜":9810,"켰":9811,"코":9812,"콕":9813,"콘":9814,"콜":9815,"콤":9816,"콥":9817,"콧":9818,"콩":9819,"콰":9820,"쾌":9821,"쾰":9822,"쿄":9823,"쿠":9824,"쿡":9825,"쿤":9826,"쿨":9827,"쿼":9828,"퀘":9829,"퀴":9830,"퀸":9831,"큐":9832,"큘":9833,"크":9834,"큰":9835,"클":9836,"큼":9837,"키":9838,"킥":9839,"킨":9840,"킬":9841,"킴":9842,"킷":9843,"킹":9844,"타":9845,"탁":9846,"탄":9847,"탈":9848,"탐":9849,"탑":9850,"탓":9851,"탔":9852,"탕":9853,"태":9854,"택":9855,"탠":9856,"탤":9857,"탬":9858,"탭":9859,"탱":9860,"터":9861,"턱":9862,"턴":9863,"털":9864,"텀":9865,"테":9866,"텍":9867,"텐":9868,"텔":9869,"템":9870,"텝":9871,"톈":9872,"토":9873,"톡":9874,"톤":9875,"톨":9876,"톰":9877,"톱":9878,"통":9879,"퇴":9880,"투":9881,"툰":9882,"툴":9883,"툼":9884,"퉁":9885,"튀":9886,"튜":9887,"튠":9888,"튬":9889,"트":9890,"특":9891,"튼":9892,"틀":9893,"틈":9894,"티":9895,"틱":9896,"틴":9897,"틸":9898,"팀":9899,"팅":9900,"파":9901,"팍":9902,"판":9903,"팔":9904,"팜":9905,"팝":9906,"팟":9907,"팡":9908,"패":9909,"팩":9910,"팬":9911,"팽":9912,"퍼":9913,"펀":9914,"펄":9915,"펌":9916,"펑":9917,"페":9918,"펙":9919,"펜":9920,"펠":9921,"펫":9922,"펴":9923,"편":9924,"펼":9925,"평":9926,"폐":9927,"포":9928,"폭":9929,"폰":9930,"폴":9931,"폼":9932,"퐁":9933,"표":9934,"푸":9935,"푼":9936,"풀":9937,"품":9938,"풋":9939,"풍":9940,"퓨":9941,"프":9942,"픈":9943,"플":9944,"픔":9945,"피":9946,"픽":9947,"핀":9948,"필":9949,"핍":9950,"핑":9951,"하":9952,"학":9953,"한":9954,"할":9955,"함":9956,"합":9957,"핫":9958,"항":9959,"해":9960,"핵":9961,"핸":9962,"햄":9963,"햇":9964,"했":9965,"행":9966,"향":9967,"허":9968,"헌":9969,"헐":9970,"험":9971,"헝":9972,"헤":9973,"헨":9974,"헬":9975,"혀":9976,"혁":9977,"현":9978,"혈":9979,"혐":9980,"협":9981,"혔":9982,"형":9983,"혜":9984,"호":9985,"혹":9986,"혼":9987,"홀":9988,"홈":9989,"홉":9990,"홋":9991,"홍":9992,"화":9993,"확":9994,"환":9995,"활":9996,"황":9997,"회":9998,"획":9999,"횟":10000,"횡":10001,"효":10002,"후":10003,"훈":10004,"훌":10005,"훔":10006,"훗":10007,"훨":10008,"훼":10009,"휘":10010,"휠":10011,"휩":10012,"휴":10013,"흉":10014,"흐":10015,"흑":10016,"흔":10017,"흘":10018,"흙":10019,"흡":10020,"흥":10021,"흩":10022,"희":10023,"흰":10024,"히":10025,"힌":10026,"힐":10027,"힘":10028,"힙":10029,"﨑":10030,"ﮐ":10031,"ﮟ":10032,"ﮨ":10033,"ﮯ":10034,"ﯽ":10035,"ﯿ":10036,"﴾":10037,"﴿":10038,"ﷲ":10039,"ﷺ":10040,"︰":10041,"﹐":10042,"﹑":10043,"﹔":10044,"﹕":10045,"﹝":10046,"﹞":10047,"﹣":10048,"ﺍ":10049,"ﺎ":10050,"ﺗ":10051,"ﻣ":10052,"ﻭ":10053,"ﻮ":10054,"！":10055,"＂":10056,"＃":10057,"％":10058,"＆":10059,"（":10060,"）":10061,"＊":10062,"＋":10063,"，":10064,"－":10065,"．":10066,"／":10067,"０":10068,"１":10069,"２":10070,"３":10071,"４":10072,"５":10073,"６":10074,"７":10075,"８":10076,"９":10077,"：":10078,"；":10079,"＜":10080,"＝":10081,"＞":10082,"？":10083,"＠":10084,"Ａ":10085,"Ｂ":10086,"Ｃ":10087,"Ｍ":10088,"Ｓ":10089,"Ｘ":10090,"［":10091,"＼":10092,"］":10093,"＿":10094,"｜":10095,"～":10096,"｡":10097,"｢":10098,"｣":10099,"､":10100,"･":10101,"𩽾":10102,"𩾌":10103,"de":10104,"the":10105,"in":10106,"##s":10107,"of":10108,"la":10109,"en":10110,"and":10111,"##e":10112,"##a":10113,"to":10114,"##n":10115,"##i":10116,"The":10117,"der":10118,"un":10119,"di":10120,"que":10121,"на":10122,"##t":10123,"is":10124,"el":10125,"se":10126,"del":10127,"die":10128,"##r":10129,"und":10130,"et":10131,"na":10132,"##o":10133,"was":10134,"on":10135,"##en":10136,"är":10137,"##u":10138,"des":10139,"den":10140,"le":10141,"for":10142,"da":10143,"je":10144,"van":10145,"as":10146,"##m":10147,"sa":10148,"do":10149,"10":10150,"an":10151,"les":10152,"una":10153,"il":10154,"by":10155,"og":10156,"##y":10157,"2011":10158,"La":10159,"at":10160,"##l":10161,"##d":10162,"er":10163,"al":10164,"##er":10165,"von":10166,"In":10167,"du":10168,"with":10169,"av":10170,"##es":10171,"med":10172,"con":10173,"##k":10174,"2010":10175,"est":10176,"och":10177,"per":10178,"##а":10179,"2000":10180,"som":10181,"los":10182,"por":10183,"nga":10184,"2012":10185,"12":10186,"het":10187,"from":10188,"that":10189,"De":10190,"##и":10191,"no":10192,"11":10193,"2014":10194,"2009":10195,"es":10196,"20":10197,"su":10198,"ISBN":10199,"een":10200,"ja":10201,"2007":10202,"2008":10203,"km":10204,"##е":10205,"##an":10206,"2013":10207,"15":10208,"om":10209,"في":10210,"im":10211,"com":10212,"##ta":10213,"2006":10214,"dan":10215,"##te":10216,"på":10217,"18":10218,"##na":10219,"para":10220,"mit":10221,"2015":10222,"als":10223,"El":10224,"como":10225,"his":10226,"##у":10227,"ha":10228,"##da":10229,"##ing":10230,"une":10231,"...":10232,"24":10233,"за":10234,"Den":10235,"Die":10236,"##h":10237,"##ne":10238,"در":10239,"##g":10240,"##м":10241,"das":10242,"En":10243,"30":10244,"##in":10245,"##re":10246,"14":10247,"par":10248,"13":10249,"16":10250,"##us":10251,"2005":10252,"##de":10253,"је":10254,"2016":10255,"és":10256,"au":10257,"25":10258,"000":10259,"dans":10260,"he":10261,"che":10262,"##on":10263,"2004":10264,"yang":10265,"em":10266,"##н":10267,"dem":10268,"##ch":10269,"19":10270,"it":10271,"2001":10272,"17":10273,"°C":10274,"til":10275,"2002":10276,"се":10277,"##ی":10278,"han":10279,"##ia":10280,"Le":10281,"Il":10282,"wurde":10283,"##le":10284,"las":10285,"della":10286,"New":10287,"##ra":10288,"من":10289,"ein":10290,"##is":10291,"##ы":10292,"um":10293,"si":10294,"2003":10295,"21":10296,"по":10297,"ist":10298,"var":10299,"Species":10300,"are":10301,"2017":10302,"op":10303,"zu":10304,"##z":10305,"22":10306,"für":10307,"##et":10308,"were":10309,"##os":10310,"od":10311,"son":10312,"An":10313,"26":10314,"World":10315,"##о":10316,"##do":10317,"של":10318,"which":10319,"##ja":10320,"va":10321,"pour":10322,"ve":10323,"1999":10324,"##ti":10325,"sur":10326,"به":10327,"23":10328,"auf":10329,"##la":10330,"là":10331,"от":10332,"##é":10333,"года":10334,"II":10335,"##ed":10336,"Life":10337,"war":10338,"za":10339,"##to":10340,"##se":10341,"##ni":10342,"##no":10343,"до":10344,"or":10345,"nel":10346,"be":10347,"28":10348,"det":10349,"##c":10350,"##т":10351,"##і":10352,"##х":10353,"##ar":10354,"qui":10355,"του":10356,"He":10357,"και":10358,"eine":10359,"az":10360,"te":10361,"##va":10362,"1998":10363,"##ом":10364,"27":10365,"mm":10366,"##та":10367,"##nt":10368,"##ma":10369,"finns":10370,"##ka":10371,"sich":10372,"Catalogue":10373,"had":10374,"не":10375,"##ng":10376,"It":10377,"în":10378,"also":10379,"so":10380,"##je":10381,"##ة":10382,"از":10383,"##й":10384,"##я":10385,"29":10386,"из":10387,"##ه":10388,"1996":10389,"##li":10390,"1997":10391,"am":10392,"has":10393,"km²":10394,"roku":10395,"și":10396,"dari":10397,"dos":10398,"ur":10399,"##ie":10400,"##ri":10401,"entre":10402,"##as":10403,"University":10404,"да":10405,"lo":10406,"100":10407,"eta":10408,"##на":10409,"##p":10410,"era":10411,"के":10412,"31":10413,"ni":10414,"##al":10415,"##ה":10416,"một":10417,"##j":10418,"##ce":10419,"1990":10420,"John":10421,"first":10422,"voor":10423,"się":10424,"##ca":10425,"##ment":10426,"os":10427,"met":10428,"##ا":10429,"од":10430,"ou":10431,"và":10432,"##ов":10433,"2018":10434,"all":10435,"1995":10436,"uma":10437,"##ים":10438,"во":10439,"##ko":10440,"aus":10441,"1991":10442,"##ó":10443,"1994":10444,"Der":10445,"non":10446,"của":10447,"foi":10448,"##si":10449,"1992":10450,"##em":10451,"af":10452,"har":10453,"##ly":10454,"their":10455,"ar":10456,"##b":10457,"film":10458,"##의":10459,"avec":10460,"##ي":10461,"50":10462,"1993":10463,"one":10464,"##um":10465,"##sa":10466,"bis":10467,"Les":10468,"San":10469,"της":10470,"##ă":10471,"not":10472,"but":10473,"its":10474,"та":10475,"được":10476,"##v":10477,"ir":10478,"who":10479,"ny":10480,"##ו":10481,"York":10482,"##ga":10483,"##ς":10484,"her":10485,"##it":10486,"το":10487,"ang":10488,"månaden":10489,"Mexico":10490,"over":10491,"bei":10492,"ser":10493,"www":10494,"году":10495,"nach":10496,"した":10497,"که":10498,"dei":10499,"##mi":10500,"##ת":10501,"##ت":10502,"trakten":10503,"trong":10504,"nederbörd":10505,"##ki":10506,"את":10507,"##ми":10508,"ligger":10509,"##к":10510,"të":10511,"alla":10512,"##с":10513,"po":10514,"auch":10515,"History":10516,"##л":10517,"yn":10518,"##р":10519,"для":10520,"##ка":10521,"door":10522,"UK":10523,"1989":10524,"##ge":10525,"##at":10526,"dat":10527,"runt":10528,"have":10529,"##에":10530,"this":10531,"में":10532,"40":10533,"##י":10534,"##ية":10535,"American":10536,"##ba":10537,"1980":10538,"ed":10539,"uit":10540,"##в":10541,"species":10542,"más":10543,"från":10544,"##í":10545,"##ur":10546,"este":10547,"1988":10548,"ya":10549,"##ke":10550,"two":10551,"parte":10552,"fue":10553,"ne":10554,"Checklist":10555,"http":10556,"Ang":10557,"năm":10558,"amb":10559,"على":10560,"bir":10561,"##st":10562,"plus":10563,"##ات":10564,"ITIS":10565,"است":10566,"##ro":10567,"Press":10568,"है":10569,"##el":10570,"under":10571,"על":10572,"する":10573,"zijn":10574,"##f":10575,"On":10576,"##ות":10577,"1986":10578,"werd":10579,"zum":10580,"1987":10581,"##ن":10582,"1985":10583,"978":10584,"pada":10585,"meter":10586,"су":10587,"men":10588,"##man":10589,"been":10590,"dell":10591,"ini":10592,"##ю":10593,"familia":10594,"din":10595,"September":10596,"1984":10597,"##ci":10598,"einer":10599,"Orrell":10600,"có":10601,"Saint":10602,"sua":10603,"##ul":10604,"##ndo":10605,"album":10606,"1970":10607,"qu":10608,"United":10609,"ao":10610,"##mente":10611,"##ve":10612,"över":10613,"mais":10614,"werden":10615,"Annual":10616,"seu":10617,"Panoramas":10618,"Viewfinder":10619,"genus":10620,"##ą":10621,"##을":10622,"september":10623,"Kirk":10624,"##ся":10625,"oli":10626,"##me":10627,"fra":10628,"Reading":10629,"Los":10630,"Michael":10631,"sie":10632,"##den":10633,"##の":10634,"time":10635,"##но":10636,"##za":10637,"##io":10638,"Bourgoin":10639,"NASA":10640,"این":10641,"1982":10642,"1983":10643,"##ów":10644,"Bailly":10645,"ngan":10646,"sont":10647,"##ки":10648,"την":10649,"Roskov":10650,"Baillargeon":10651,"III":10652,"Paglinawan":10653,"1981":10654,"National":10655,"##ни":10656,"No":10657,"##د":10658,"dengan":10659,"DEM":10660,"##á":10661,"after":10662,"dalam":10663,"ett":10664,"1975":10665,"Det":10666,"##or":10667,"part":10668,"01":10669,"1945":10670,"dia":10671,"Das":10672,"##ر":10673,"##ла":10674,"1979":10675,"##nya":10676,"1972":10677,"come":10678,"##ya":10679,"red":10680,"##ten":10681,"ingår":10682,"els":10683,"other":10684,"Na":10685,"##x":10686,"në":10687,"France":10688,"they":10689,"sobre":10690,"کے":10691,"##om":10692,"1978":10693,"William":10694,"##не":10695,"##те":10696,"tot":10697,"1968":10698,"1960":10699,"##م":10700,"jako":10701,"был":10702,"##di":10703,"delen":10704,"1976":10705,"##kan":10706,"##ek":10707,"into":10708,"60":10709,"##ak":10710,"və":10711,"till":10712,"##ı":10713,"durch":10714,"##lo":10715,"##ung":10716,"року":10717,"ble":10718,"06":10719,"από":10720,"##ів":10721,"1977":10722,"1974":10723,"1973":10724,"May":10725,"nicht":10726,"aan":10727,"Paris":10728,"##2":10729,"ka":10730,"##S":10731,"1971":10732,"org":10733,"Mer":10734,"August":10735,"zur":10736,"mai":10737,"##A":10738,"##이":10739,"dal":10740,"up":10741,"##ها":10742,"ng":10743,"här":10744,"einem":10745,"##д":10746,"This":10747,"را":10748,"nahilalakip":10749,"då":10750,"new":10751,"##то":10752,"थ्व":10753,"aux":10754,"Ginkuhà":10755,"##ny":10756,"500":10757,"##ho":10758,"##1":10759,"oder":10760,"##ju":10761,"sind":10762,"landet":10763,"1969":10764,"##ان":10765,"Jean":10766,"algoritmen":10767,"Användare":10768,"Algoritmer":10769,"Lsjbot":10770,"International":10771,"Paul":10772,"City":10773,"##lar":10774,"##ji":10775,"höjduppgifter":10776,"200":10777,"На":10778,"км":10779,"April":10780,"με":10781,"untuk":10782,"##ли":10783,"adalah":10784,"hij":10785,"uska":10786,"ziren":10787,"att":10788,"này":10789,"wird":10790,"что":10791,"các":10792,"iz":10793,"ce":10794,"sin":10795,"Im":10796,"##go":10797,"more":10798,"nan":10799,"1967":10800,"pas":10801,"havet":10802,"35":10803,"David":10804,"ei":10805,"##ts":10806,"nella":10807,"US":10808,"hini":10809,"##ción":10810,"1950":10811,"##co":10812,"TV":10813,"04":10814,"##ler":10815,"##à":10816,"man":10817,"Han":10818,"November":10819,"Robert":10820,"Nicolson":10821,"##tion":10822,"##г":10823,"ma":10824,"1944":10825,"की":10826,"45":10827,"1962":10828,"London":10829,"lui":10830,"05":10831,"80":10832,"she":10833,"dels":10834,"##ir":10835,"##ía":10836,"delle":10837,"St":10838,"1965":10839,"ad":10840,"when":10841,"32":10842,"65":10843,"##ų":10844,"été":10845,"sus":10846,"för":10847,"über":10848,"subspecies":10849,"due":10850,"##ь":10851,"##ва":10852,"##ku":10853,"cu":10854,"years":10855,"1964":10856,"1966":10857,"##C":10858,"States":10859,"familjen":10860,"ہے":10861,"fan":10862,"إلى":10863,"що":10864,"NGC":10865,"Ouvrard":10866,"Het":10867,"са":10868,"Bisby":10869,"##ze":10870,"და":10871,"ginhulagway":10872,"later":10873,"##w":10874,"1961":10875,"họ":10876,"##ter":10877,"07":10878,"ki":10879,"или":10880,"1941":10881,"As":10882,"Al":10883,"##3":10884,"##ë":10885,"County":10886,"Waray":10887,"1940":10888,"huvudstaden":10889,"nakalista":10890,"##ns":10891,"##은":10892,"only":10893,"would":10894,"1939":10895,"##ik":10896,"einen":10897,"##が":10898,"più":10899,"James":10900,"##ers":10901,"godine":10902,"Framräknat":10903,"1963":10904,"kan":10905,"から":10906,"03":10907,"##ry":10908,"با":10909,"januari":10910,"me":10911,"Es":10912,"при":10913,"##ी":10914,"Er":10915,"میں":10916,"##sen":10917,"##های":10918,"90":10919,"##des":10920,"##ha":10921,"##ção":10922,"70":10923,"year":10924,"Charles":10925,"släktet":10926,"##ban":10927,"##ен":10928,"##0":10929,"blev":10930,"pa":10931,"##ם":10932,"его":10933,"varmaste":10934,"Årsmedeltemperaturen":10935,"kallaste":10936,"beskrevs":10937,"medeltemperaturen":10938,"during":10939,"where":10940,"ze":10941,"eller":10942,"##rs":10943,"can":10944,"loài":10945,"underarter":10946,"1958":10947,"between":10948,"как":10949,"out":10950,"Bronnen":10951,"された":10952,"wie":10953,"##년":10954,"George":10955,"со":10956,"him":10957,"Inga":10958,"sono":10959,"##ти":10960,"##ل":10961,"millimeter":10962,"##ę":10963,"noten":10964,"##ben":10965,"juli":10966,"referenties":10967,"alle":10968,"##ren":10969,"##ных":10970,"##ը":10971,"##sta":10972,"jest":10973,"ses":10974,"1956":10975,"##rt":10976,"और":10977,"about":10978,"Peter":10979,"1959":10980,"listade":10981,"నుండి":10982,"02":10983,"School":10984,"vun":10985,"comme":10986,"##да":10987,"1943":10988,"tahun":10989,"##го":10990,"##tu":10991,"most":10992,"##ма":10993,"genomsnitt":10994,"wurden":10995,"torraste":10996,"årsnederbörd":10997,"Genomsnittlig":10998,"regnigaste":10999,"33":11000,"године":11001,"##ן":11002,"three":11003,"1948":11004,"fu":11005,"##ů":11006,"invånare":11007,"##am":11008,"kvadratkilometer":11009,"##ou":11010,"##4":11011,"Earth":11012,"##ä":11013,"anche":11014,"ben":11015,"##от":11016,"1942":11017,"##는":11018,"made":11019,"англ":11020,"##ria":11021,"కి":11022,"ye":11023,"##ov":11024,"00":11025,"1957":11026,"người":11027,"1930":11028,"1920":11029,"##il":11030,"used":11031,"1954":11032,"##mo":11033,"dhe":11034,"09":11035,"vom":11036,"##wa":11037,"Un":11038,"##jo":11039,"sebagai":11040,"forma":11041,"##és":11042,"##ica":11043,"##be":11044,"Se":11045,"##ion":11046,"durante":11047,"przez":11048,"such":11049,"##ного":11050,"deux":11051,"08":11052,"known":11053,"ved":11054,"36":11055,"South":11056,"ta":11057,"nie":11058,"then":11059,"он":11060,"USA":11061,"##ken":11062,"1946":11063,"dass":11064,"You":11065,"Maria":11066,"##ina":11067,"να":11068,"34":11069,"final":11070,"1955":11071,"से":11072,"である":11073,"League":11074,"##ной":11075,"کی":11076,"population":11077,"##п":11078,"##ра":11079,"##land":11080,"का":11081,"1938":11082,"##lla":11083,"than":11084,"nu":11085,"##ب":11086,"1953":11087,"##ine":11088,"naam":11089,"##T":11090,"##س":11091,"##ный":11092,"300":11093,"IV":11094,"1949":11095,"Thomas":11096,"1918":11097,"India":11098,"τον":11099,"1952":11100,"All":11101,"##한":11102,"הוא":11103,"State":11104,"merupakan":11105,"##ской":11106,"##un":11107,"##ні":11108,"Oxford":11109,"familie":11110,"club":11111,"July":11112,"1947":11113,"یک":11114,"##zione":11115,"més":11116,"elle":11117,"Richard":11118,"##che":11119,"June":11120,"team":11121,"Az":11122,"1936":11123,"unter":11124,"học":11125,"44":11126,"##P":11127,"##র":11128,"##ner":11129,"##ic":11130,"care":11131,"second":11132,"##ł":11133,"zen":11134,"ca":11135,"mga":11136,"Nel":11137,"として":11138,"Retrieved":11139,"##ok":11140,"від":11141,"##ig":11142,"##th":11143,"March":11144,"##و":11145,"inom":11146,"##nu":11147,"##ш":11148,"She":11149,"που":11150,"には":11151,"some":11152,"##ada":11153,"Santa":11154,"there":11155,"oleh":11156,"##ste":11157,"GeoNames":11158,"##ut":11159,"British":11160,"pe":11161,"Film":11162,"ke":11163,"West":11164,"data":11165,"##5":11166,"gli":11167,"area":11168,"##án":11169,"co":11170,"38":11171,"һәм":11172,"1937":11173,"##ció":11174,"born":11175,"400":11176,"kao":11177,"any":11178,"became":11179,"των":11180,"##dos":11181,"với":11182,"##ton":11183,"##ского":11184,"serie":11185,"एक":11186,"ook":11187,"છે":11188,"##que":11189,"vor":11190,"##ку":11191,"place":11192,"Berlin":11193,"##ные":11194,"##ty":11195,"soort":11196,"##tes":11197,"including":11198,"##ে":11199,"1951":11200,"đầu":11201,"pod":11202,"##ble":11203,"37":11204,"##das":11205,"well":11206,"cm":11207,"##ा":11208,"##ר":11209,"##gi":11210,"##6":11211,"October":11212,"đã":11213,"##ի":11214,"egy":11215,"##nen":11216,"##ն":11217,"Jahr":11218,"koji":11219,"General":11220,"oraz":11221,"through":11222,"being":11223,"##ní":11224,"North":11225,"season":11226,"##nte":11227,"waren":11228,"година":11229,"noch":11230,"##ll":11231,"doi":11232,"##ea":11233,"##res":11234,"Martin":11235,"##ant":11236,"hadton":11237,"January":11238,"Park":11239,"##ан":11240,"eerst":11241,"##ہ":11242,"##ò":11243,"##vo":11244,"##ée":11245,"##né":11246,"1933":11247,"Love":11248,"##id":11249,"hat":11250,"ఉన్నాయి":11251,"ko":11252,"##ssa":11253,"database":11254,"Po":11255,"Society":11256,"cho":11257,"##ть":11258,"##E":11259,"են":11260,"##로":11261,"στην":11262,"##ck":11263,"tra":11264,"fost":11265,"pero":11266,"को":11267,"##les":11268,"##ning":11269,"##lle":11270,"1935":11271,"##ado":11272,"##R":11273,"##B":11274,"##ske":11275,"42":11276,"War":11277,"años":11278,"но":11279,"##gen":11280,"##I":11281,"##zi":11282,"1934":11283,"pro":11284,"سال":11285,"1919":11286,"##가":11287,"December":11288,"Em":11289,"##ot":11290,"##ל":11291,"##ой":11292,"##ist":11293,"##ين":11294,"64":11295,"bij":11296,"##nie":11297,"##ista":11298,"many":11299,"48":11300,"After":11301,"sebuah":11302,"39":11303,"##der":11304,"##7":11305,"1914":11306,"##ны":11307,"nord":11308,"pp":11309,"##vi":11310,"Database":11311,"##に":11312,"Europa":11313,"మీ":11314,"suo":11315,"Club":11316,"Music":11317,"radie":11318,"Grand":11319,"では":11320,"##ს":11321,"ci":11322,"де":11323,"name":11324,"Museum":11325,"##ون":11326,"against":11327,"prima":11328,"fait":11329,"آن":11330,"volt":11331,"その":11332,"1932":11333,"Louis":11334,"##nia":11335,"1929":11336,"will":11337,"σε":11338,"total":11339,"One":11340,"أن":11341,"bi":11342,"Man":11343,"1928":11344,"them":11345,"ai":11346,"##га":11347,"##berg":11348,"41":11349,"як":11350,"για":11351,"hogy":11352,"dalla":11353,"nur":11354,"##pe":11355,"world":11356,"ab":11357,"55":11358,"##pa":11359,"before":11360,"στο":11361,"amin":11362,"اور":11363,"original":11364,"family":11365,"series":11366,"won":11367,"1917":11368,"##L":11369,"43":11370,"while":11371,"ale":11372,"##9":11373,"ఉంది":11374,"José":11375,"single":11376,"##を":11377,"ont":11378,"Joseph":11379,"commune":11380,"uno":11381,"##nde":11382,"1931":11383,"##ў":11384,"cui":11385,"##ский":11386,"may":11387,"state":11388,"general":11389,"##tas":11390,"Records":11391,"desde":11392,"school":11393,"sous":11394,"solo":11395,"##8":11396,"Art":11397,"byl":11398,"For":11399,"år":11400,"##ski":11401,"juni":11402,"##O":11403,"base":11404,"##ent":11405,"via":11406,"nom":11407,"both":11408,"roce":11409,"hasta":11410,"seiner":11411,"stato":11412,"47":11413,"עם":11414,"sowie":11415,"1924":11416,"75":11417,"##men":11418,"ex":11419,"não":11420,"##ের":11421,"naar":11422,"##ית":11423,"work":11424,"worden":11425,"people":11426,"және":11427,"gepubliceerd":11428,"под":11429,"Encyclopedia":11430,"области":11431,"gran":11432,"wetenschappelijke":11433,"##ски":11434,"##lu":11435,"local":11436,"عام":11437,"mars":11438,"grande":11439,"America":11440,"Lake":11441,"1927":11442,"også":11443,"until":11444,"##ky":11445,"##ger":11446,"##G":11447,"также":11448,"##ão":11449,"была":11450,"##ý":11451,"geldig":11452,"##न":11453,"College":11454,"становника":11455,"##ца":11456,"Union":11457,"గ్రామం":11458,"Ny":11459,"##du":11460,"1922":11461,"##cia":11462,"1925":11463,"cette":11464,"##ura":11465,"1921":11466,"##으로":11467,"zeuden":11468,"To":11469,"Trakten":11470,"wa":11471,"1926":11472,"contra":11473,"Van":11474,"році":11475,"είναι":11476,"##ii":11477,"##sk":11478,"sein":11479,"По":11480,"##ol":11481,"##ón":11482,"##ā":11483,"##ć":11484,"##ska":11485,"history":11486,"number":11487,"##ad":11488,"##에서":11489,"##D":11490,"nombre":11491,"##них":11492,"seine":11493,"Jahre":11494,"го":11495,"##nes":11496,"##ों":11497,"##mento":11498,"bu":11499,"Am":11500,"primer":11501,"##ия":11502,"کا":11503,"esta":11504,"Nach":11505,"있다":11506,"1912":11507,"February":11508,"##ز":11509,"##లో":11510,"##ї":11511,"System":11512,"##를":11513,"Award":11514,"King":11515,"anni":11516,"##M":11517,"Las":11518,"bat":11519,"hi":11520,"1923":11521,"mö":11522,"partir":11523,"51":11524,"52":11525,"Nacional":11526,"##tt":11527,"46":11528,"FC":11529,"##by":11530,"sem":11531,"##ний":11532,"##lt":11533,"##nd":11534,"juga":11535,"кӀоштан":11536,"##N":11537,"ay":11538,"released":11539,"##ien":11540,"దూరంలో":11541,"##ai":11542,"Elle":11543,"Cup":11544,"House":11545,"sig":11546,"provinsen":11547,"##ная":11548,"##र":11549,"##ий":11550,"bagian":11551,"called":11552,"played":11553,"##े":11554,"Italia":11555,"Кхузахь":11556,"##ке":11557,"nem":11558,"está":11559,"seus":11560,"same":11561,"##ə":11562,"stanovnika":11563,"también":11564,"##F":11565,"aber":11566,"##ст":11567,"1900":11568,"hatte":11569,"band":11570,"##з":11571,"end":11572,"nos":11573,"している":11574,"River":11575,"ду":11576,"##ა":11577,"råder":11578,"##он":11579,"49":11580,"asteroid":11581,"было":11582,"Sie":11583,"city":11584,"1910":11585,"Washington":11586,"##ach":11587,"##は":11588,"Me":11589,"My":11590,"##are":11591,"して":11592,"China":11593,"même":11594,"Tour":11595,"Royal":11596,"His":11597,"four":11598,"##son":11599,"ing":11600,"Henry":11601,"##ло":11602,"vào":11603,"ile":11604,"##ert":11605,"1913":11606,"village":11607,"##len":11608,"Pierre":11609,"based":11610,"##ischen":11611,"Dr":11612,"##ет":11613,"li":11614,"zwei":11615,"English":11616,"tre":11617,"vid":11618,"Italy":11619,"##ron":11620,"California":11621,"##ita":11622,"##ко":11623,"##ies":11624,"ಮತ್ತು":11625,"##ش":11626,"##ire":11627,"56":11628,"thành":11629,"##ian":11630,"##ana":11631,"tả":11632,"nome":11633,"số":11634,"Canada":11635,"##ě":11636,"##ú":11637,"ikke":11638,"re":11639,"##cht":11640,"Red":11641,"tháng":11642,"##he":11643,"était":11644,"##bi":11645,"CD":11646,"были":11647,"##ում":11648,"IC":11649,"został":11650,"namngivna":11651,"principal":11652,"54":11653,"Routledge":11654,"eines":11655,"wordt":11656,"время":11657,"Indonesia":11658,"kilometer":11659,"sud":11660,"game":11661,"##と":11662,"то":11663,"##고":11664,"degli":11665,"##lich":11666,"Italian":11667,"##ン":11668,"##so":11669,"niet":11670,"anno":11671,"##ische":11672,"Smith":11673,"version":11674,"vez":11675,"##ks":11676,"après":11677,"ug":11678,"##ud":11679,"##ru":11680,"tres":11681,"1915":11682,"public":11683,"être":11684,"khoa":11685,"Juan":11686,"##ف":11687,"närheten":11688,"سے":11689,"dit":11690,"december":11691,"##ным":11692,"##ع":11693,"Loài":11694,"long":11695,"They":11696,"Cambridge":11697,"τα":11698,"At":11699,"že":11700,"England":11701,"التي":11702,"##q":11703,"Air":11704,"##au":11705,"izd":11706,"коды":11707,"sistema":11708,"##ier":11709,"##cy":11710,"##ک":11711,"За":11712,"што":11713,"##ल":11714,"nun":11715,"हैं":11716,"##mu":11717,"##ник":11718,"Center":11719,"واقع":11720,"BBC":11721,"اس":11722,"There":11723,"vuonna":11724,"november":11725,"##ida":11726,"Madrid":11727,"Runt":11728,"Australia":11729,"Best":11730,"sau":11731,"early":11732,"##K":11733,"año":11734,"ut":11735,"several":11736,"##ন":11737,"1911":11738,"Company":11739,"Don":11740,"Si":11741,"##ей":11742,"ville":11743,"ans":11744,"enligt":11745,"##ч":11746,"##ls":11747,"pentru":11748,"عن":11749,"Black":11750,"Association":11751,"##ну":11752,"olan":11753,"atau":11754,"không":11755,"53":11756,"Christian":11757,"dont":11758,"##im":11759,"use":11760,"84":11761,"these":11762,"Hall":11763,"since":11764,"nog":11765,"150":11766,"Europe":11767,"Hans":11768,"ten":11769,"ਹੈ":11770,"Festival":11771,"olarak":11772,"land":11773,"##கள்":11774,"former":11775,"högsta":11776,"##ри":11777,"##ini":11778,"##V":11779,"UTC":11780,"##han":11781,"cada":11782,"go":11783,"Mai":11784,"1916":11785,"seva":11786,"system":11787,"zwischen":11788,"guerra":11789,"##bo":11790,"Do":11791,"Daniel":11792,"pela":11793,"Roma":11794,"group":11795,"600":11796,"مع":11797,"Francisco":11798,"τη":11799,"بن":11800,"ਦੇ":11801,"##nin":11802,"wat":11803,"regia":11804,"##му":11805,"Jan":11806,"leur":11807,"oktober":11808,"##ation":11809,"maar":11810,"tiên":11811,"1905":11812,"##tor":11813,"où":11814,"же":11815,"home":11816,"57":11817,"Da":11818,"1908":11819,"дар":11820,"##dae":11821,"##ciones":11822,"found":11823,"58":11824,"station":11825,"fin":11826,"##ius":11827,"##ס":11828,"Census":11829,"East":11830,"この":11831,"##ى":11832,"##сь":11833,"Marie":11834,"برای":11835,"Star":11836,"augusti":11837,"një":11838,"music":11839,"từ":11840,"post":11841,"donde":11842,"أو":11843,"national":11844,"##त":11845,"high":11846,"set":11847,"Island":11848,"##dor":11849,"like":11850,"##ле":11851,"##ق":11852,"1907":11853,"दु":11854,"##ux":11855,"mas":11856,"##vat":11857,"now":11858,"ra":11859,"punkten":11860,"##nda":11861,"Karl":11862,"##lik":11863,"Jahren":11864,"##idae":11865,"بعد":11866,"59":11867,"tidak":11868,"myös":11869,"##اً":11870,"fut":11871,"Frank":11872,"Antonio":11873,"april":11874,"dopo":11875,"primera":11876,"##iu":11877,"Stadt":11878,"شد":11879,"##ker":11880,"Insecta":11881,"##과":11882,"τους":11883,"##ار":11884,"Central":11885,"##ė":11886,"ga":11887,"nei":11888,"##ang":11889,"##ды":11890,"Japan":11891,"بود":11892,"##ון":11893,"French":11894,"kg":11895,"XIX":11896,"show":11897,"off":11898,"##ок":11899,"800":11900,"following":11901,"Estados":11902,"##다":11903,"pelo":11904,"##ии":11905,"dieser":11906,"##ige":11907,"##ua":11908,"##chen":11909,"itu":11910,"##ico":11911,"##ted":11912,"premier":11913,"European":11914,"ban":11915,"Bu":11916,"هو":11917,"##ice":11918,"Open":11919,"site":11920,"после":11921,"major":11922,"Observations":11923,"##hi":11924,"##이다":11925,"vida":11926,"adolah":11927,"Band":11928,"Journal":11929,"gegen":11930,"februari":11931,"1906":11932,"##ları":11933,"những":11934,"vật":11935,"Od":11936,"また":11937,"art":11938,"1904":11939,"day":11940,"began":11941,"##ive":11942,"century":11943,"1909":11944,"##ling":11945,"În":11946,"był":11947,"each":11948,"##ity":11949,"##ej":11950,"we":11951,"##ata":11952,"telah":11953,"located":11954,"було":11955,"High":11956,"##dir":11957,"District":11958,"ili":11959,"hän":11960,"também":11961,"Street":11962,"село":11963,"##sti":11964,"estado":11965,"Als":11966,"Oktober":11967,"Unidos":11968,"##át":11969,"havia":11970,"quando":11971,"##gan":11972,"seit":11973,"год":11974,"##ven":11975,"Zeit":11976,"##ер":11977,"95":11978,"ایران":11979,"##ская":11980,"novembre":11981,"Per":11982,"nasod":11983,"Edward":11984,"##zen":11985,"भाषा":11986,"Division":11987,"net":11988,"service":11989,"##ui":11990,"held":11991,"thực":11992,"налази":11993,"autres":11994,"Το":11995,"Population":11996,"Mark":11997,"##ei":11998,"menjadi":11999,"Time":12000,"Land":12001,"đến":12002,"aussi":12003,"Nord":12004,"thuộc":12005,"Lee":12006,"##°":12007,"member":12008,"##ے":12009,"населения":12010,"song":12011,"##ци":12012,"##rio":12013,"back":12014,"##era":12015,"##са":12016,"85":12017,"agosto":12018,"##ова":12019,"Times":12020,"hans":12021,"##U":12022,"##rd":12023,"anos":12024,"##ж":12025,"German":12026,"##nik":12027,"bien":12028,"##ин":12029,"##인":12030,"Institute":12031,"deze":12032,"йогӀу":12033,"Is":12034,"був":12035,"Terrängen":12036,"sul":12037,"named":12038,"గ్రామంలో":12039,"##ами":12040,"hun":12041,"seg":12042,"##ville":12043,"##sch":12044,"andere":12045,"onder":12046,"government":12047,"120":12048,"دے":12049,"Carlos":12050,"এবং":12051,"км²":12052,"בשנת":12053,"Group":12054,"##lan":12055,"depuis":12056,"unha":12057,"onde":12058,"##tan":12059,"nad":12060,"##ene":12061,"alors":12062,"Alexander":12063,"их":12064,"Live":12065,"62":12066,"XX":12067,"РФ":12068,"##ական":12069,"като":12070,"að":12071,"khi":12072,"Према":12073,"88":12074,"юкъа":12075,"Hij":12076,"large":12077,"video":12078,"##া":12079,"Modern":12080,"lugar":12081,"mot":12082,"Radio":12083,"او":12084,"##ד":12085,"tại":12086,"Os":12087,"casa":12088,"age":12089,"##lor":12090,"également":12091,"##도":12092,"să":12093,"##ב":12094,"##сы":12095,"##zo":12096,"##cie":12097,"essere":12098,"##је":12099,"company":12100,"##ure":12101,"jeho":12102,"life":12103,"però":12104,"##ley":12105,"binon":12106,"district":12107,"його":12108,"Rio":12109,"##ją":12110,"##ran":12111,"през":12112,"Barcelona":12113,"São":12114,"país":12115,"production":12116,"line":12117,"##ль":12118,"##ын":12119,"72":12120,"meg":12121,"##ere":12122,"так":12123,"palibot":12124,"##ris":12125,"main":12126,"fr":12127,"First":12128,"eerste":12129,"##kin":12130,"##tte":12131,"mi":12132,"gikan":12133,"ali":12134,"Index":12135,"White":12136,"ngày":12137,"ainsi":12138,"efter":12139,"Team":12140,"##ting":12141,"social":12142,"frå":12143,"latach":12144,"Information":12145,"##dan":12146,"Science":12147,"Una":12148,"took":12149,"##nce":12150,"##क":12151,"России":12152,"left":12153,"##ском":12154,"siècle":12155,"էր":12156,"##ně":12157,"Rock":12158,"Data":12159,"Op":12160,"jedoch":12161,"ordo":12162,"##áu":12163,"##లు":12164,"série":12165,"around":12166,"##ці":12167,"היה":12168,"huvudsak":12169,"##ների":12170,"##ја":12171,"did":12172,"habitantes":12173,"could":12174,"1903":12175,"Mary":12176,"##bu":12177,"##하는":12178,"première":12179,"82":12180,"##ц":12181,"##נה":12182,"built":12183,"##ска":12184,"capital":12185,"1000":12186,"99":12187,"form":12188,"##сти":12189,"پر":12190,"nell":12191,"##ದ":12192,"pado":12193,"या":12194,"دارد":12195,"joka":12196,"dla":12197,"habitants":12198,"され":12199,"##ului":12200,"##tta":12201,"##ты":12202,"Diptera":12203,"##ның":12204,"Friedrich":12205,"población":12206,"abril":12207,"##té":12208,"However":12209,"Ein":12210,"fa":12211,"##ber":12212,"पर":12213,"250":12214,"66":12215,"##ın":12216,"##ப்":12217,"یا":12218,"News":12219,"region":12220,"town":12221,"From":12222,"##ale":12223,"86":12224,"Carl":12225,"ersten":12226,"variansen":12227,"lan":12228,"pre":12229,"##ス":12230,"zona":12231,"##ство":12232,"Angeles":12233,"##val":12234,"##ি":12235,"##で":12236,"Simon":12237,"tempo":12238,"finale":12239,"kom":12240,"famili":12241,"When":12242,"INSEE":12243,"##ère":12244,"etter":12245,"##zioni":12246,"ਵਿੱਚ":12247,"##burg":12248,"rock":12249,"side":12250,"hadde":12251,"где":12252,"play":12253,"present":12254,"1901":12255,"63":12256,"##ah":12257,"terletak":12258,"СССР":12259,"partie":12260,"sy":12261,"VI":12262,"PMID":12263,"Brasil":12264,"##де":12265,"viene":12266,"første":12267,"##ния":12268,"היא":12269,"Pada":12270,"Su":12271,"اے":12272,"Von":12273,"banda":12274,"Tom":12275,"##age":12276,"if":12277,"##க்":12278,"##sche":12279,"##tus":12280,"насеље":12281,"grupo":12282,"##є":12283,"primo":12284,"Atlas":12285,"water":12286,"##ksi":12287,"etwa":12288,"Hill":12289,"った":12290,"##ique":12291,"##ções":12292,"kingdom":12293,"##ła":12294,"što":12295,"received":12296,"bio":12297,"Jones":12298,"##ás":12299,"Anna":12300,"##ano":12301,"zich":12302,"1902":12303,"published":12304,"##ського":12305,"##ido":12306,"word":12307,"96":12308,"されている":12309,"##기":12310,"οι":12311,"##ства":12312,"1890":12313,"61":12314,"жана":12315,"67":12316,"Chicago":12317,"mar":12318,"công":12319,"ciudad":12320,"loro":12321,"iki":12322,"живело":12323,"81":12324,"served":12325,"كان":12326,"98":12327,"97":12328,"për":12329,"##יה":12330,"point":12331,"##ð":12332,"##ros":12333,"thể":12334,"drei":12335,"Santiago":12336,"##liche":12337,"mort":12338,"List":12339,"לא":12340,"Championship":12341,"Jack":12342,"##ió":12343,"Bureau":12344,"Coleoptera":12345,"##cji":12346,"##मा":12347,"Diakses":12348,"##ino":12349,"##mann":12350,"##ٔ":12351,"##cu":12352,"##ою":12353,"##nek":12354,"##dy":12355,"match":12356,"Awards":12357,"temps":12358,"Roman":12359,"Day":12360,"mu":12361,"גם":12362,"include":12363,"top":12364,"heeft":12365,"Juli":12366,"700":12367,"cuando":12368,"##ü":12369,"68":12370,"##mer":12371,"são":12372,"because":12373,"Cerambycidae":12374,"etc":12375,"Juni":12376,"pri":12377,"##ат":12378,"##ور":12379,"mens":12380,"within":12381,"kann":12382,"##ט":12383,"Real":12384,"bulan":12385,"хуьлу":12386,"##ms":12387,"му":12388,"эвла":12389,"##ito":12390,"##ном":12391,"##tet":12392,"đó":12393,"mentre":12394,"Son":12395,"##H":12396,"central":12397,"##inen":12398,"Por":12399,"along":12400,"marzo":12401,"##nej":12402,"five":12403,"Sa":12404,"byla":12405,"Animalia":12406,"##lı":12407,"83":12408,"того":12409,"record":12410,"ning":12411,"jego":12412,"España":12413,"##jen":12414,"said":12415,"Internet":12416,"##ný":12417,"fueron":12418,"##ego":12419,"về":12420,"sonra":12421,"Albert":12422,"Culture":12423,"##서":12424,"Marine":12425,"wieder":12426,"ایک":12427,"76":12428,"radio":12429,"orang":12430,"provincia":12431,"висини":12432,"том":12433,"##ル":12434,"andre":12435,"##ate":12436,"هي":12437,"kam":12438,"obra":12439,"##nje":12440,"ما":12441,"##ند":12442,"##ima":12443,"engleski":12444,"##ских":12445,"ήταν":12446,"filum":12447,"##də":12448,"six":12449,"ва":12450,"puis":12451,"important":12452,"##하고":12453,"##ium":12454,"##ای":12455,"надморској":12456,"##ens":12457,"92":12458,"##jos":12459,"để":12460,"director":12461,"italiano":12462,"PDF":12463,"members":12464,"##nih":12465,"Texas":12466,"##ње":12467,"Januar":12468,"last":12469,"##ого":12470,"mehr":12471,"насељу":12472,"million":12473,"small":12474,"Album":12475,"##ari":12476,"sido":12477,"Young":12478,"93":12479,"Big":12480,"буенча":12481,"died":12482,"program":12483,"vart":12484,"football":12485,"dân":12486,"buvo":12487,"quân":12488,"What":12489,"##했다":12490,"1898":12491,"78":12492,"pel":12493,"Williams":12494,"##kt":12495,"kelas":12496,"##ك":12497,"Arthropoda":12498,"Football":12499,"два":12500,"français":12501,"années":12502,"бассейны":12503,"best":12504,"bị":12505,"Walter":12506,"##ono":12507,"##지":12508,"##ში":12509,"##ק":12510,"contre":12511,"##को":12512,"71":12513,"לאחר":12514,"Este":12515,"##ő":12516,"bila":12517,"media":12518,"91":12519,"##ம்":12520,"##aan":12521,"quan":12522,"نفر":12523,"##wy":12524,"otros":12525,"##ι":12526,"77":12527,"##б":12528,"Party":12529,"##ף":12530,"される":12531,"Amerika":12532,"international":12533,"##ג":12534,"74":12535,"##lis":12536,"że":12537,"##leri":12538,"lors":12539,"##గా":12540,"jo":12541,"own":12542,"så":12543,"Indian":12544,"73":12545,"Vol":12546,"##zy":12547,"областан":12548,"1897":12549,"During":12550,"1896":12551,"như":12552,"##rat":12553,"##lig":12554,"zo":12555,"vo":12556,"death":12557,"very":12558,"##ции":12559,"nalazi":12560,"milimetro":12561,"час":12562,"##ver":12563,"شدهاست":12564,"DVD":12565,"air":12566,"marupokan":12567,"peut":12568,"Hän":12569,"koja":12570,"1899":12571,"##gt":12572,"69":12573,"نے":12574,"##ceae":12575,"vers":12576,"##we":12577,"Academy":12578,"##ем":12579,"inglés":12580,"87":12581,"##nja":12582,"için":12583,"மற்றும்":12584,"building":12585,"##ія":12586,"##sten":12587,"##ах":12588,"##gu":12589,"yr":12590,"satu":12591,"Great":12592,"ela":12593,"Under":12594,"Sant":12595,"importante":12596,"##nis":12597,"trên":12598,"1895":12599,"popular":12600,"##лі":12601,"Lac":12602,"lang":12603,"id":12604,"##스":12605,"mis":12606,"##iert":12607,"control":12608,"##하였다":12609,"Of":12610,"##ء":12611,"naselje":12612,"With":12613,"над":12614,"ਅਤੇ":12615,"##ح":12616,"##č":12617,"##ש":12618,"mereka":12619,"##ld":12620,"##ное":12621,"ilə":12622,"Brown":12623,"Во":12624,"аса":12625,"jaar":12626,"anys":12627,"third":12628,"انگلیسی":12629,"##let":12630,"Johann":12631,"beim":12632,"##ques":12633,"па":12634,"##ých":12635,"sự":12636,"ele":12637,"##와":12638,"services":12639,"dall":12640,"tanggal":12641,"89":12642,"esis":12643,"tym":12644,"Nam":12645,"Werner":12646,"still":12647,"Road":12648,"##ν":12649,"અને":12650,"seinem":12651,"бойынша":12652,"trois":12653,"##ké":12654,"todo":12655,"todos":12656,"jsou":12657,"álbum":12658,"##rum":12659,"ông":12660,"mei":12661,"си":12662,"һыу":12663,"Bei":12664,"Kunze":12665,"ਦੀ":12666,"நாள்":12667,"како":12668,"##ಗಳು":12669,"##ге":12670,"Wilhelm":12671,"centre":12672,"##ите":12673,"##X":12674,"##pi":12675,"those":12676,"##ara":12677,"col":12678,"Cerro":12679,"##od":12680,"थाय्":12681,"##ys":12682,"##tti":12683,"kilometro":12684,"Top":12685,"##ие":12686,"دی":12687,"fou":12688,"And":12689,"Church":12690,"её":12691,"##리":12692,"Wever":12693,"children":12694,"kayu":12695,"які":12696,"בין":12697,"اینگیلیسجه":12698,"Mit":12699,"##اء":12700,"Culham":12701,"држави":12702,"Night":12703,"##ite":12704,"meer":12705,"##ני":12706,"chính":12707,"##pen":12708,"про":12709,"##ین":12710,"হয়":12711,"##ј":12712,"##per":12713,"vol":12714,"##ez":12715,"By":12716,"##og":12717,"ter":12718,"##ную":12719,"##ato":12720,"många":12721,"1889":12722,"country":12723,"seinen":12724,"vier":12725,"##מה":12726,"1880":12727,"##nak":12728,"ia":12729,"##use":12730,"або":12731,"agus":12732,"është":12733,"ידי":12734,"haar":12735,"až":12736,"##сть":12737,"Version":12738,"##ele":12739,"##ա":12740,"tak":12741,"included":12742,"##ал":12743,"jusqu":12744,"Jacques":12745,"општини":12746,"mayor":12747,"book":12748,"94":12749,"diese":12750,"##ня":12751,"##nti":12752,"##ди":12753,"##ser":12754,"liegt":12755,"north":12756,"né":12757,"había":12758,"թվականի":12759,"María":12760,"##ח":12761,"Army":12762,"Сахьтан":12763,"lat":12764,"##ster":12765,"##ар":12766,"plaats":12767,"två":12768,"України":12769,"##schen":12770,"ildə":12771,"##ue":12772,"лет":12773,"##ť":12774,"Germany":12775,"mindre":12776,"zuen":12777,"США":12778,"##sia":12779,"eds":12780,"була":12781,"Asia":12782,"##ras":12783,"öster":12784,"##ret":12785,"Super":12786,"causa":12787,"మరియు":12788,"points":12789,"izan":12790,"79":12791,"Dezember":12792,"später":12793,"centro":12794,"који":12795,"wo":12796,"ano":12797,"через":12798,"1870":12799,"Grande":12800,"##än":12801,"##ју":12802,"##ту":12803,"##ova":12804,"##sko":12805,"##chi":12806,"type":12807,"##ile":12808,"ihre":12809,"στη":12810,"President":12811,"Scott":12812,"##ով":12813,"cidade":12814,"tai":12815,"Luis":12816,"##isch":12817,"##sse":12818,"##tar":12819,"just":12820,"Council":12821,"##ane":12822,"##ija":12823,"Social":12824,"Насеље":12825,"juo":12826,"بين":12827,"##ել":12828,"Australian":12829,"нь":12830,"савезној":12831,"tiene":12832,"##iva":12833,"После":12834,"Prix":12835,"Guerra":12836,"##nych":12837,"Centre":12838,"twee":12839,"större":12840,"dove":12841,"tour":12842,"##ş":12843,"ces":12844,"Con":12845,"као":12846,"antes":12847,"tersebut":12848,"Pedro":12849,"τις":12850,"avant":12851,"Sir":12852,"Argentina":12853,"Max":12854,"сахьт":12855,"కేంద్రం":12856,"led":12857,"##ᵉ":12858,"mô":12859,"Kanada":12860,"##ых":12861,"Ende":12862,"##ában":12863,"another":12864,"We":12865,"questo":12866,"##bar":12867,"##ена":12868,"பார்த்த":12869,"città":12870,"##ye":12871,"metros":12872,"comune":12873,"piano":12874,"##ә":12875,"ως":12876,"також":12877,"##ि":12878,"família":12879,"Africa":12880,"comuna":12881,"So":12882,"near":12883,"después":12884,"ovat":12885,"ին":12886,"title":12887,"see":12888,"norte":12889,"##ії":12890,"cual":12891,"##su":12892,"##ць":12893,"کرد":12894,"Liga":12895,"1886":12896,"koje":12897,"old":12898,"often":12899,"tem":12900,"Iran":12901,"different":12902,"##нда":12903,"##rie":12904,"Windows":12905,"jej":12906,"1885":12907,"très":12908,"ako":12909,"##kom":12910,"venne":12911,"##sel":12912,"März":12913,"Harry":12914,"թվականին":12915,"Mr":12916,"индексаш":12917,"##נים":12918,"Verlag":12919,"##ona":12920,"tanto":12921,"##mas":12922,"dar":12923,"##lichen":12924,"1894":12925,"##one":12926,"växer":12927,"player":12928,"information":12929,"##ade":12930,"president":12931,"nước":12932,"Department":12933,"##ський":12934,"down":12935,"Little":12936,"Arts":12937,"##ської":12938,"Portugal":12939,"gada":12940,"או":12941,"##ция":12942,"segundo":12943,"Di":12944,"##사":12945,"leta":12946,"nas":12947,"буйынса":12948,"بر":12949,"##ға":12950,"##ák":12951,"Power":12952,"##line":12953,"sen":12954,"##van":12955,"position":12956,"temporada":12957,"میشود":12958,"Research":12959,"1893":12960,"##ft":12961,"live":12962,"Meyer":12963,"##cha":12964,"##어":12965,"Jr":12966,"1892":12967,"который":12968,"##dd":12969,"groupe":12970,"role":12971,"Blue":12972,"isang":12973,"##cions":12974,"##кі":12975,"what":12976,"има":12977,"##net":12978,"ich":12979,"fins":12980,"qual":12981,"Sciences":12982,"1891":12983,"làm":12984,"##ais":12985,"##eur":12986,"omgivningarna":12987,"VII":12988,"##ça":12989,"order":12990,"Israel":12991,"François":12992,"##цы":12993,"puede":12994,"نام":12995,"Francia":12996,"##aren":12997,"web":12998,"это":12999,"car":13000,"خود":13001,"late":13002,"tout":13003,"انگریزی":13004,"##ey":13005,"hoa":13006,"##ira":13007,"##их":13008,"bet":13009,"described":13010,"Deutschland":13011,"без":13012,"##uk":13013,"Русия":13014,"poi":13015,"किया":13016,"подацима":13017,"Spesies":13018,"нийса":13019,"##lin":13020,"career":13021,"består":13022,"grand":13023,"##ore":13024,"heute":13025,"Men":13026,"##ج":13027,"you":13028,"Dans":13029,"##ց":13030,"климат":13031,"##ena":13032,"лелаш":13033,"##W":13034,"##ча":13035,"##ков":13036,"Global":13037,"Durante":13038,"##ային":13039,"także":13040,"##ise":13041,"åt":13042,"Teil":13043,"تا":13044,"poder":13045,"sunt":13046,"sekä":13047,"##vu":13048,"født":13049,"jak":13050,"##est":13051,"vattendrag":13052,"eran":13053,"1888":13054,"tu":13055,"dann":13056,"110":13057,"XVIII":13058,"moved":13059,"##ika":13060,"##rn":13061,"Joe":13062,"nelle":13063,"##uje":13064,"plan":13065,"durant":13066,"gemeente":13067,"Green":13068,"Lo":13069,"gadā":13070,"Universität":13071,"Adam":13072,"Good":13073,"شده":13074,"Els":13075,"може":13076,"fel":13077,"##zu":13078,"më":13079,"hai":13080,"##ят":13081,"були":13082,"Wilson":13083,"##lər":13084,"volta":13085,"make":13086,"XVI":13087,"ने":13088,"spesies":13089,"आहे":13090,"##uri":13091,"grandes":13092,"studio":13093,"##ੀ":13094,"осіб":13095,"##able":13096,"##ор":13097,"Co":13098,"hvor":13099,"##ী":13100,"caso":13101,"plusieurs":13102,"presidente":13103,"##ক":13104,"Creek":13105,"более":13106,"aastal":13107,"Manuel":13108,"##sis":13109,"##се":13110,"monde":13111,"ez":13112,"tipo":13113,"Ed":13114,"sans":13115,"##ité":13116,"##ná":13117,"која":13118,"عدد":13119,"glesbefolkat":13120,"الذي":13121,"సమీప":13122,"again":13123,"Nova":13124,"IUCN":13125,"##ним":13126,"period":13127,"##vel":13128,"##een":13129,"są":13130,"erste":13131,"ihm":13132,"##ali":13133,"Arthur":13134,"##ring":13135,"##ves":13136,"mundo":13137,"Instituto":13138,"##ина":13139,"##α":13140,"جو":13141,"música":13142,"##ді":13143,"south":13144,"support":13145,"Bay":13146,"väster":13147,"lại":13148,"##ses":13149,"Copa":13150,"Chris":13151,"iko":13152,"##nın":13153,"##ال":13154,"nordväst":13155,"##ges":13156,"##ам":13157,"kun":13158,"هذه":13159,"Bill":13160,"avril":13161,"quatre":13162,"Western":13163,"jorden":13164,"Prema":13165,"але":13166,"##ard":13167,"até":13168,"Jackson":13169,"way":13170,"Afrika":13171,"much":13172,"ho":13173,"Gemeinde":13174,"sitt":13175,"vum":13176,"##ente":13177,"ils":13178,"##న":13179,"Song":13180,"человек":13181,"लिए":13182,"power":13183,"##ित":13184,"##ں":13185,"Eine":13186,"##ih":13187,"##ín":13188,"دا":13189,"women":13190,"gant":13191,"model":13192,"konnte":13193,"father":13194,"musical":13195,"##ham":13196,"número":13197,"Decock":13198,"thời":13199,"Didžiulis":13200,"##ende":13201,"##ע":13202,"Abucay":13203,"وی":13204,"ਦਾ":13205,"mismo":13206,"##tra":13207,"##ž":13208,"Au":13209,"Serie":13210,"##ության":13211,"##ncia":13212,"similar":13213,"Two":13214,"house":13215,"Law":13216,"##lia":13217,"Chile":13218,"así":13219,"हो":13220,"##ps":13221,"html":13222,"gia":13223,"fois":13224,"##лар":13225,"ary":13226,"##eri":13227,"##য়":13228,"Her":13229,"##ès":13230,"హెక్టార్లు":13231,"##ಿ":13232,"между":13233,"1878":13234,"##ша":13235,"##rea":13236,"##лық":13237,"berg":13238,"Series":13239,"Mae":13240,"Johnson":13241,"Names":13242,"sulla":13243,"کو":13244,"established":13245,"even":13246,"محمد":13247,"об":13248,"1883":13249,"maj":13250,"три":13251,"These":13252,"##ées":13253,"động":13254,"law":13255,"vagy":13256,"##лы":13257,"Li":13258,"##ati":13259,"kuperad":13260,"він":13261,"article":13262,"États":13263,"##sh":13264,"nhà":13265,"##ი":13266,"má":13267,"##ds":13268,"miejsce":13269,"Mike":13270,"Platz":13271,"Gran":13272,"Michel":13273,"##ix":13274,"##tic":13275,"yılında":13276,"level":13277,"1887":13278,"##ಲ್ಲಿ":13279,"Kirche":13280,"під":13281,"##ის":13282,"anderen":13283,"cũng":13284,"samhälle":13285,"भी":13286,"##ներ":13287,"Thompson":13288,"haben":13289,"عليه":13290,"##も":13291,"##ев":13292,"mutta":13293,"##nom":13294,"face":13295,"fler":13296,"Giovanni":13297,"Cette":13298,"Chinese":13299,"München":13300,"far":13301,"##ల":13302,"##cije":13303,"Ben":13304,"Register":13305,"##ì":13306,"Long":13307,"Steve":13308,"který":13309,"Närmaste":13310,"##ami":13311,"##ња":13312,"##ula":13313,"suite":13314,"##ide":13315,"norr":13316,"##це":13317,"##tos":13318,"vil":13319,"##ación":13320,"##ee":13321,"##ala":13322,"место":13323,"Philip":13324,"##ры":13325,"##ons":13326,"им":13327,"among":13328,"hier":13329,"##cí":13330,"##cs":13331,"games":13332,"nära":13333,"করে":13334,"opera":13335,"1860":13336,"cap":13337,"Ce":13338,"##tà":13339,"##è":13340,"Media":13341,"##ły":13342,"Dit":13343,"##ės":13344,"që":13345,"nhất":13346,"Geraadpleegd":13347,"Office":13348,"##met":13349,"##ಯ":13350,"style":13351,"Sud":13352,"كانت":13353,"community":13354,"circa":13355,"Wikimedia":13356,"sådana":13357,"##het":13358,"##ната":13359,"Paulo":13360,"tudi":13361,"##op":13362,"memiliki":13363,"sempre":13364,"##tik":13365,"1884":13366,"##ام":13367,"##ът":13368,"##fa":13369,"fino":13370,"##nza":13371,"##via":13372,"Heinrich":13373,"##하여":13374,"full":13375,"оьрс":13376,"dapat":13377,"##وں":13378,"##yn":13379,"deel":13380,"syahan":13381,"using":13382,"came":13383,"Force":13384,"זה":13385,"##mos":13386,"##ford":13387,"xã":13388,"130":13389,"##ба":13390,"##ше":13391,"inwoners":13392,"##ком":13393,"lebih":13394,"foram":13395,"##cher":13396,"##ism":13397,"written":13398,"Taylor":13399,"kot":13400,"jämfört":13401,"ganska":13402,"ovanligt":13403,"##issa":13404,"development":13405,"##ç":13406,"construction":13407,"##field":13408,"natural":13409,"sai":13410,"により":13411,"gan":13412,"##ան":13413,"является":13414,"Februar":13415,"list":13416,"php":13417,"historia":13418,"weer":13419,"##ss":13420,"ilk":13421,"població":13422,"1848":13423,"debut":13424,"1882":13425,"1881":13426,"##ના":13427,"nebo":13428,"##ները":13429,"juin":13430,"stata":13431,"##स":13432,"produced":13433,"##tis":13434,"fine":13435,"muy":13436,"##اں":13437,"kasarangang":13438,"##ici":13439,"Lord":13440,"##된":13441,"قرار":13442,"které":13443,"centrala":13444,"förekomst":13445,"went":13446,"genomsnittlig":13447,"right":13448,"quale":13449,"Show":13450,"next":13451,"аз":13452,"Signifikant":13453,"##heid":13454,"lub":13455,"modern":13456,"started":13457,"##ল":13458,"із":13459,"##ил":13460,"become":13461,"стал":13462,"Russian":13463,"avait":13464,"times":13465,"##ने":13466,"famille":13467,"també":13468,"Columbia":13469,"##nan":13470,"##rna":13471,"année":13472,"primeiro":13473,"case":13474,"##ਰ":13475,"##eg":13476,"tous":13477,"##им":13478,"##urs":13479,"##ым":13480,"Russell":13481,"kepada":13482,"ru":13483,"min":13484,"##tat":13485,"real":13486,"área":13487,"против":13488,"Service":13489,"Anne":13490,"Are":13491,"##cija":13492,"tema":13493,"στις":13494,"##tura":13495,"ஒரு":13496,"Para":13497,"هذا":13498,"##ous":13499,"який":13500,"students":13501,"ihrer":13502,"##ell":13503,"##ados":13504,"През":13505,"bereits":13506,"given":13507,"avoir":13508,"Une":13509,"1st":13510,"1871":13511,"än":13512,"Roger":13513,"lain":13514,"реестры":13515,"##ës":13516,"##ο":13517,"Ali":13518,"##ел":13519,"##po":13520,"Billboard":13521,"nordost":13522,"##ши":13523,"married":13524,"यह":13525,"hiện":13526,"##mus":13527,"UEFA":13528,"janvier":13529,"uz":13530,"zituzten":13531,"##rer":13532,"Bank":13533,"marca":13534,"##ції":13535,"Women":13536,"##ता":13537,"##nn":13538,"Kim":13539,"material":13540,"##ние":13541,"##ত":13542,"encuentra":13543,"mesmo":13544,"900":13545,"##mes":13546,"various":13547,"января":13548,"akan":13549,"##nim":13550,"average":13551,"##tă":13552,"dins":13553,"Your":13554,"саны":13555,"Azərbaycan":13556,"äbinon":13557,"yra":13558,"fire":13559,"septembre":13560,"Վերցված":13561,"Plants":13562,"##ingen":13563,"##ию":13564,"##ese":13565,"##ско":13566,"Year":13567,"шп":13568,"round":13569,"##ské":13570,"ба":13571,"Российн":13572,"Otto":13573,"take":13574,"website":13575,"років":13576,"##že":13577,"head":13578,"כי":13579,"##ù":13580,"##bra":13581,"##ф":13582,"Bob":13583,"##cio":13584,"gov":13585,"##եր":13586,"nin":13587,"origine":13588,"secondo":13589,"morte":13590,"súa":13591,"dort":13592,"astéroid":13593,"##за":13594,"let":13595,"class":13596,"junto":13597,"Федерацин":13598,"##ht":13599,"##ral":13600,"##ți":13601,"persones":13602,"##ӣ":13603,"Inc":13604,"hay":13605,"saison":13606,"také":13607,"Ohio":13608,"octobre":13609,"1861":13610,"samt":13611,"Henri":13612,"те":13613,"них":13614,"kumbang":13615,"Lietuvos":13616,"story":13617,"సంఖ్య":13618,"Мексику":13619,"ihn":13620,"ac":13621,"ഒരു":13622,"حيث":13623,"1864":13624,"Malaysia":13625,"tussen":13626,"că":13627,"##되었다":13628,"ging":13629,"1857":13630,"1879":13631,"##én":13632,"##ًا":13633,"Virginia":13634,"zuten":13635,"modo":13636,"##נו":13637,"време":13638,"жылы":13639,"##tica":13640,"##yi":13641,"Empire":13642,"##vé":13643,"##יים":13644,"Entre":13645,"That":13646,"##би":13647,"1800":13648,"##nego":13649,"##ket":13650,"plu":13651,"##ం":13652,"##eren":13653,"1876":13654,"Jahrhundert":13655,"Up":13656,"altres":13657,"fer":13658,"Wien":13659,"##llo":13660,"Victoria":13661,"són":13662,"without":13663,"date":13664,"##ले":13665,"Esta":13666,"мен":13667,"Florida":13668,"دو":13669,"equipo":13670,"##िक":13671,"yo":13672,"siglo":13673,"huvudsakligen":13674,"tal":13675,"während":13676,"having":13677,"##ده":13678,"Reference":13679,"który":13680,"Republic":13681,"Seine":13682,"Boston":13683,"design":13684,"election":13685,"все":13686,"sia":13687,"első":13688,"##ismo":13689,"Special":13690,"beiden":13691,"##ungen":13692,"##ல்":13693,"bahin":13694,"##tz":13695,"että":13696,"mer":13697,"cerca":13698,"altri":13699,"##си":13700,"состав":13701,"language":13702,"padre":13703,"Queen":13704,"punto":13705,"dai":13706,"FIFA":13707,"store":13708,"VIII":13709,"nhiều":13710,"##iem":13711,"först":13712,"один":13713,"##ют":13714,"Program":13715,"short":13716,"pop":13717,"##ो":13718,"term":13719,"##માં":13720,"только":13721,"contro":13722,"##hu":13723,"##bre":13724,"bäldoti":13725,"lifayelas":13726,"Foi":13727,"##ң":13728,"forces":13729,"Alfred":13730,"Ottawa":13731,"సౌకర్యం":13732,"##rte":13733,"##ної":13734,"west":13735,"political":13736,"download":13737,"Francis":13738,"##ero":13739,"Ha":13740,"##igen":13741,"tarafından":13742,"katika":13743,"Ma":13744,"created":13745,"können":13746,"Francesco":13747,"##ement":13748,"Tony":13749,"segunda":13750,"division":13751,"Franz":13752,"около":13753,"Unis":13754,"##gang":13755,"nuo":13756,"ذلك":13757,"söder":13758,"Lewis":13759,"miêu":13760,"##اد":13761,"##ną":13762,"##bus":13763,"##자":13764,"##ĕ":13765,"##ਨ":13766,"있는":13767,"##ਾ":13768,"Een":13769,"##bel":13770,"oficial":13771,"vie":13772,"Old":13773,"cc":13774,"ένα":13775,"1877":13776,"titre":13777,"##rin":13778,"##nı":13779,"##тар":13780,"autre":13781,"momento":13782,"suoi":13783,"##ili":13784,"ara":13785,"ft":13786,"juillet":13787,"##los":13788,"1873":13789,"1863":13790,"##ви":13791,"1810":13792,"etxek":13793,"था":13794,"metal":13795,"Je":13796,"1875":13797,"nr":13798,"##ila":13799,"however":13800,"Book":13801,"ihr":13802,"phát":13803,"1633":13804,"города":13805,"という":13806,"##ため":13807,"##ging":13808,"##ನ":13809,"Des":13810,"##idad":13811,"Commons":13812,"континенталан":13813,"1865":13814,"programa":13815,"ਨੂੰ":13816,"Natural":13817,"##nosti":13818,"##erd":13819,"##ff":13820,"1867":13821,"Frantsesez":13822,"skulle":13823,"few":13824,"mellom":13825,"##ля":13826,"east":13827,"Digital":13828,"uso":13829,"Diese":13830,"communes":13831,"André":13832,"##ೆ":13833,"##א":13834,"stesso":13835,"##sı":13836,"##ét":13837,"eren":13838,"African":13839,"naselju":13840,"##म":13841,"Sky":13842,"века":13843,"##vis":13844,"##ram":13845,"México":13846,"Japanese":13847,"bộ":13848,"160":13849,"pays":13850,"aos":13851,"##dia":13852,"professor":13853,"announced":13854,"arte":13855,"manera":13856,"República":13857,"worked":13858,"##rar":13859,"확인함":13860,"1868":13861,"##ните":13862,"bez":13863,"##ede":13864,"##ый":13865,"Stephen":13866,"Patrick":13867,"sei":13868,"Saison":13869,"primeira":13870,"Ray":13871,"ima":13872,"##че":13873,"##य":13874,"Villa":13875,"##қ":13876,"half":13877,"daha":13878,"لا":13879,"войны":13880,"1850":13881,"##ында":13882,"##iv":13883,"лараран":13884,"Some":13885,"микрохаамаш":13886,"Toppen":13887,"Google":13888,"##ën":13889,"##장":13890,"##ong":13891,"XIII":13892,"online":13893,"##ー":13894,"Robinson":13895,"Taxonomic":13896,"bil":13897,"Home":13898,"кӀошт":13899,"##თ":13900,"Universidad":13901,"Costa":13902,"##iti":13903,"##ando":13904,"Miguel":13905,"dy":13906,"##ని":13907,"seperti":13908,"Johannes":13909,"hành":13910,"bäldotü":13911,"180":13912,"##ト":13913,"joined":13914,"წლის":13915,"eit":13916,"##jas":13917,"##if":13918,"Region":13919,"project":13920,"##ғы":13921,"1500":13922,"##rus":13923,"See":13924,"economic":13925,"structure":13926,"Romania":13927,"##iques":13928,"Buenos":13929,"تے":13930,"dello":13931,"décembre":13932,"route":13933,"eo":13934,"ass":13935,"hanno":13936,"Nature":13937,"Consultáu":13938,"field":13939,"gibt":13940,"##ləri":13941,"1866":13942,"között":13943,"1872":13944,"SS":13945,"erhielt":13946,"XVII":13947,"1859":13948,"سنة":13949,"équipe":13950,"theo":13951,"vita":13952,"vir":13953,"wrote":13954,"området":13955,"vi":13956,"sos":13957,"140":13958,"Ia":13959,"Aires":13960,"free":13961,"Airport":13962,"شهر":13963,"notamment":13964,"##երի":13965,"##Z":13966,"Sun":13967,"Act":13968,"##nym":13969,"Rainfall":13970,"##ding":13971,"beste":13972,"updated":13973,"seorang":13974,"##த்":13975,"она":13976,"Brian":13977,"1869":13978,"##ern":13979,"##heim":13980,"него":13981,"ulan":13982,"##las":13983,"général":13984,"##ett":13985,"##nika":13986,"sub":13987,"août":13988,"1862":13989,"days":13990,"lieu":13991,"Geschichte":13992,"##jon":13993,"Georg":13994,"##ña":13995,"##nas":13996,"Wikipedia":13997,"##ay":13998,"Andrew":13999,"##elle":14000,"diesem":14001,"tarde":14002,"Books":14003,"również":14004,"Lady":14005,"iš":14006,"maart":14007,"Jawa":14008,"works":14009,"##ness":14010,"Mario":14011,"actual":14012,"##ani":14013,"ہیں":14014,"God":14015,"אך":14016,"Amsterdam":14017,"##ं":14018,"Consultado":14019,"قبل":14020,"Pro":14021,"Fernando":14022,"Canadian":14023,"Studies":14024,"race":14025,"որ":14026,"Bad":14027,"которые":14028,"より":14029,"returned":14030,"Kūh":14031,"nije":14032,"1874":14033,"aquest":14034,"дәүләт":14035,"Oscar":14036,"quien":14037,"bol":14038,"party":14039,"##시":14040,"military":14041,"status":14042,"سی":14043,"であり":14044,"fi":14045,"waar":14046,"aj":14047,"125":14048,"##யில்":14049,"Seit":14050,"XIV":14051,"przy":14052,"موقع":14053,"professional":14054,"enpresak":14055,"Online":14056,"Eric":14057,"##ella":14058,"municipio":14059,"##ರ":14060,"Game":14061,"となる":14062,"sydväst":14063,"month":14064,"kde":14065,"actor":14066,"##ու":14067,"##tre":14068,"Enero":14069,"##ु":14070,"##ника":14071,"release":14072,"##nts":14073,"Za":14074,"##lus":14075,"máis":14076,"Institut":14077,"founded":14078,"##tive":14079,"ही":14080,"Londres":14081,"octubre":14082,"##cja":14083,"##dad":14084,"sendo":14085,"Guide":14086,"open":14087,"##lli":14088,"salah":14089,"Fue":14090,"Hot":14091,"Publishing":14092,"##ék":14093,"##ký":14094,"run":14095,"Korea":14096,"XII":14097,"XV":14098,"Regie":14099,"Court":14100,"##nus":14101,"##한다":14102,"がある":14103,"tiempo":14104,"2nd":14105,"భూమి":14106,"lead":14107,"research":14108,"Dictionary":14109,"##dır":14110,"EP":14111,"এই":14112,"dessen":14113,"Meksiku":14114,"##owy":14115,"Ludwig":14116,"कि":14117,"##uta":14118,"мая":14119,"https":14120,"населення":14121,"##ги":14122,"101":14123,"##து":14124,"win":14125,"барамера":14126,"även":14127,"possible":14128,"však":14129,"шеран":14130,"faire":14131,"##way":14132,"##ться":14133,"##nica":14134,"##bach":14135,"color":14136,"Wales":14137,"Oslo":14138,"##vas":14139,"regionen":14140,"עד":14141,"##ಕ":14142,"Point":14143,"##σε":14144,"Library":14145,"##هم":14146,"época":14147,"miles":14148,"##ве":14149,"نیز":14150,"pola":14151,"##owych":14152,"##게":14153,"homes":14154,"business":14155,"According":14156,"Mission":14157,"guerre":14158,"kanssa":14159,"Marco":14160,"civil":14161,"television":14162,"omkring":14163,"Jakarta":14164,"августа":14165,"hem":14166,"آمریکا":14167,"inte":14168,"Mundial":14169,"Elizabeth":14170,"##ன்":14171,"lost":14172,"Victor":14173,"nationale":14174,"nó":14175,"##টি":14176,"dag":14177,"Jim":14178,"human":14179,"Pour":14180,"Second":14181,"##erte":14182,"Auf":14183,"día":14184,"Prince":14185,"På":14186,"##ಗಳನ್ನು":14187,"forme":14188,"Mitglied":14189,"Entertainment":14190,"##tal":14191,"তিনি":14192,"##ae":14193,"##ń":14194,"denne":14195,"##owej":14196,"##ties":14197,"##ન":14198,"করেন":14199,"Como":14200,"church":14201,"française":14202,"ëd":14203,"action":14204,"##ál":14205,"##her":14206,"molto":14207,"##чи":14208,"visini":14209,"##zer":14210,"cours":14211,"##una":14212,"##iro":14213,"Après":14214,"secolo":14215,"шш":14216,"рус":14217,"まで":14218,"шийла":14219,"##xa":14220,"tỉnh":14221,"tant":14222,"eus":14223,"gab":14224,"magyar":14225,"hett":14226,"recorded":14227,"sede":14228,"together":14229,"superficie":14230,"##ové":14231,"كما":14232,"siendo":14233,"every":14234,"People":14235,"aveva":14236,"sydost":14237,"én":14238,"##tro":14239,"seguito":14240,"##ման":14241,"गया":14242,"rei":14243,"##り":14244,"Set":14245,"dette":14246,"Miss":14247,"Ta":14248,"anti":14249,"##illa":14250,"##्य":14251,"##ಗಳ":14252,"pertama":14253,"elected":14254,"Ford":14255,"stagione":14256,"##vá":14257,"leurs":14258,"района":14259,"##owe":14260,"Dan":14261,"Century":14262,"hade":14263,"erano":14264,"इस":14265,"kwa":14266,"estaven":14267,"Sam":14268,"ان":14269,"となった":14270,"##osa":14271,"##amente":14272,"##bles":14273,"они":14274,"után":14275,"##ген":14276,"empresa":14277,"continued":14278,"##원":14279,"films":14280,"Davis":14281,"جمعیت":14282,"dio":14283,"##ು":14284,"nouveau":14285,"##ط":14286,"Mount":14287,"##ವನ್ನು":14288,"considered":14289,"Wolfgang":14290,"##ній":14291,"zituen":14292,"making":14293,"chỉ":14294,"Station":14295,"στον":14296,"テレビ":14297,"menos":14298,"deutschen":14299,"Project":14300,"office":14301,"ok":14302,"živelo":14303,"شہر":14304,"platt":14305,"nadmorskoj":14306,"##скан":14307,"principale":14308,"Alan":14309,"track":14310,"भारत":14311,"##ű":14312,"ఒక":14313,"##ను":14314,"##ро":14315,"moment":14316,"##ется":14317,"Claude":14318,"##cus":14319,"episode":14320,"Be":14321,"bylo":14322,"yon":14323,"##יו":14324,"chi":14325,"Fort":14326,"roman":14327,"##ência":14328,"Carolina":14329,"jednak":14330,"việc":14331,"vai":14332,"body":14333,"##ला":14334,"stanovništva":14335,"##ori":14336,"При":14337,"IX":14338,"থেকে":14339,"##ור":14340,"##לה":14341,"province":14342,"política":14343,"Nueva":14344,"##bia":14345,"той":14346,"##ז":14347,"##ре":14348,"nın":14349,"##ными":14350,"example":14351,"nacional":14352,"Nr":14353,"##ские":14354,"Minister":14355,"##ação":14356,"Line":14357,"##ول":14358,"Estado":14359,"##ру":14360,"Most":14361,"##isk":14362,"Gold":14363,"bajo":14364,"Рәсәй":14365,"##rne":14366,"বারো":14367,"policy":14368,"quốc":14369,"él":14370,"יותר":14371,"edition":14372,"thị":14373,"একটি":14374,"encore":14375,"##jan":14376,"opened":14377,"ere":14378,"syn":14379,"Town":14380,"algoritmo":14381,"ti":14382,"##hin":14383,"wife":14384,"##ných":14385,"##nos":14386,"région":14387,"ότι":14388,"Professor":14389,"Valley":14390,"autor":14391,"##š":14392,"khác":14393,"##wan":14394,"campo":14395,"##ās":14396,"##кой":14397,"Model":14398,"kas":14399,"##վել":14400,"##ich":14401,"##мен":14402,"##fi":14403,"teams":14404,"##ман":14405,"stad":14406,"##ик":14407,"כל":14408,"kaominina":14409,"елга":14410,"##ins":14411,"##ré":14412,"dende":14413,"بتاريخ":14414,"##gar":14415,"event":14416,"##lui":14417,"До":14418,"Российской":14419,"##ille":14420,"thế":14421,"sinh":14422,"##대":14423,"news":14424,"##lige":14425,"Việt":14426,"Auch":14427,"Golden":14428,"этого":14429,"##ске":14430,"##يا":14431,"performance":14432,"##lse":14433,"##san":14434,"Cruz":14435,"Spisak":14436,"Carlo":14437,"prema":14438,"Go":14439,"мм":14440,"nam":14441,"Enrique":14442,"moins":14443,"eu":14444,"poco":14445,"##ful":14446,"DC":14447,"Jersey":14448,"geographical":14449,"Bernard":14450,"Zealand":14451,"joylashgan":14452,"Sur":14453,"ద్వారా":14454,"Naselje":14455,"Corporation":14456,"##feld":14457,"##ін":14458,"active":14459,"bug":14460,"bola":14461,"##nost":14462,"chiến":14463,"yw":14464,"##haus":14465,"##מים":14466,"##ntes":14467,"Stone":14468,"sama":14469,"Sydney":14470,"outros":14471,"##يد":14472,"##רה":14473,"iku":14474,"där":14475,"Susan":14476,"##ći":14477,"special":14478,"Austria":14479,"ora":14480,"Committee":14481,"Namen":14482,"sehr":14483,"##uar":14484,"Britannica":14485,"био":14486,"による":14487,"##set":14488,"sjö":14489,"Other":14490,"марта":14491,"Federal":14492,"result":14493,"##del":14494,"##ما":14495,"##bb":14496,"##lio":14497,"##isme":14498,"put":14499,"تم":14500,"Games":14501,"Development":14502,"histoire":14503,"Out":14504,"février":14505,"μια":14506,"وقد":14507,"questa":14508,"altre":14509,"##kel":14510,"Princeton":14511,"##ण":14512,"jälkeen":14513,"Familie":14514,"tego":14515,"Who":14516,"qua":14517,"Um":14518,"105":14519,"##ag":14520,"Roy":14521,"tätbefolkat":14522,"##해":14523,"Girl":14524,"##ович":14525,"##ct":14526,"després":14527,"dva":14528,"Климат":14529,"##kou":14530,"zusammen":14531,"periodo":14532,"##ની":14533,"1830":14534,"If":14535,"წელს":14536,"tiếng":14537,"##ս":14538,"Post":14539,"oko":14540,"sent":14541,"##ments":14542,"estat":14543,"areas":14544,"bahasa":14545,"իր":14546,"flere":14547,"##zie":14548,"Trung":14549,"##ión":14550,"этом":14551,"pode":14552,"##isi":14553,"Москваца":14554,"##dal":14555,"##وا":14556,"cùng":14557,"damit":14558,"части":14559,"Foundation":14560,"Ernst":14561,"Eesti":14562,"Sin":14563,"mange":14564,"appeared":14565,"реки":14566,"##nog":14567,"Space":14568,"##ose":14569,"##ија":14570,"Factbook":14571,"hag":14572,"də":14573,"peu":14574,"##йн":14575,"##ી":14576,"Kong":14577,"##ые":14578,"available":14579,"kada":14580,"Government":14581,"##nar":14582,"soit":14583,"##ões":14584,"##ces":14585,"further":14586,"lag":14587,"yari":14588,"front":14589,"##up":14590,"private":14591,"Rome":14592,"##ების":14593,"##יות":14594,"していた":14595,"села":14596,"Pacific":14597,"##ait":14598,"##այի":14599,"While":14600,"##fe":14601,"تاریخینده":14602,"stand":14603,"менен":14604,"نسمة":14605,"йовха":14606,"Stockholm":14607,"san":14608,"growth":14609,"عبد":14610,"##ую":14611,"Master":14612,"tard":14613,"##она":14614,"Miller":14615,"working":14616,"Latin":14617,"keine":14618,"Für":14619,"##ություն":14620,"Кеп":14621,"##ана":14622,"##ությունը":14623,"common":14624,"living":14625,"##ții":14626,"XI":14627,"developed":14628,"formed":14629,"##вання":14630,"հետ":14631,"august":14632,"others":14633,"##اب":14634,"secara":14635,"Web":14636,"Ireland":14637,"##oi":14638,"##oni":14639,"##ante":14640,"título":14641,"Hollywood":14642,"ligne":14643,"##gas":14644,"estaba":14645,"##부":14646,"Public":14647,"Kingdom":14648,"Sverige":14649,"##sson":14650,"labon":14651,"##ño":14652,"##دة":14653,"##ean":14654,"##ая":14655,"Story":14656,"lu":14657,"zurück":14658,"район":14659,"##ło":14660,"Spanish":14661,"##ння":14662,"zif":14663,"Russia":14664,"Diego":14665,"##یت":14666,"dago":14667,"embargo":14668,"##υ":14669,"census":14670,"novel":14671,"blir":14672,"##ਕ":14673,"còn":14674,"nebula":14675,"खः":14676,"##ское":14677,"##mar":14678,"##ција":14679,"ise":14680,"veel":14681,"##сті":14682,"mondiale":14683,"delstaten":14684,"##ズ":14685,"Bruce":14686,"study":14687,"بیر":14688,"##ме":14689,"##ү":14690,"била":14691,"ialah":14692,"dinhi":14693,"nhân":14694,"##نا":14695,"Review":14696,"anaa":14697,"bilo":14698,"Он":14699,"tako":14700,"1840":14701,"mint":14702,"##Y":14703,"করা":14704,"##ència":14705,"Magnoliopsida":14706,"dentro":14707,"ки":14708,"декабря":14709,"المتحدة":14710,"δεν":14711,"Hymenoptera":14712,"##pus":14713,"nafar":14714,"Order":14715,"eng":14716,"Premier":14717,"##rono":14718,"متر":14719,"կազմում":14720,"través":14721,"entry":14722,"Va":14723,"##eta":14724,"##る":14725,"Pennsylvania":14726,"Islam":14727,"Alex":14728,"science":14729,"Yn":14730,"official":14731,"##nta":14732,"aquesta":14733,"Port":14734,"##kat":14735,"##К":14736,"град":14737,"negara":14738,"young":14739,"στα":14740,"Sea":14741,"Premio":14742,"Board":14743,"##ția":14744,"Budapest":14745,"militar":14746,"##še":14747,"бар":14748,"##ҳои":14749,"##ム":14750,"Anthony":14751,"##and":14752,"kad":14753,"Lepidoptera":14754,"Quốc":14755,"##ggio":14756,"##чно":14757,"mycket":14758,"##wood":14759,"obefolkad":14760,"patedik":14761,"##ения":14762,"addition":14763,"himself":14764,"tuvo":14765,"##ete":14766,"##zia":14767,"Part":14768,"državi":14769,"এর":14770,"##dores":14771,"great":14772,"##ında":14773,"2009an":14774,"signed":14775,"độ":14776,"ın":14777,"gruppo":14778,"although":14779,"Navy":14780,"##ено":14781,"июля":14782,"##oa":14783,"Network":14784,"Movie":14785,"##hen":14786,"bahwa":14787,"##ված":14788,"hơn":14789,"mare":14790,"##С":14791,"furono":14792,"recensement":14793,"never":14794,"została":14795,"how":14796,"##ті":14797,"América":14798,"##ська":14799,"##ા":14800,"##적":14801,"Regional":14802,"##し":14803,"бил":14804,"gradova":14805,"interior":14806,"tras":14807,"sử":14808,"devient":14809,"Battle":14810,"deren":14811,"Last":14812,"って":14813,"##ган":14814,"Milano":14815,"че":14816,"cultural":14817,"102":14818,"should":14819,"Can":14820,"már":14821,"Janeiro":14822,"سطح":14823,"Ӏа":14824,"اطلع":14825,"##ють":14826,"הייתה":14827,"otras":14828,"Samuel":14829,"Family":14830,"posto":14831,"bija":14832,"##ர்":14833,"két":14834,"##ट":14835,"##sku":14836,"topon":14837,"##isen":14838,"Geonames":14839,"##ία":14840,"कथं":14841,"##ette":14842,"##할":14843,"maior":14844,"Biography":14845,"Ort":14846,"само":14847,"videtü":14848,"lunetü":14849,"##čno":14850,"##ರು":14851,"lett":14852,"への":14853,"##fer":14854,"alta":14855,"NBA":14856,"పైబడిన":14857,"##ған":14858,"##tie":14859,"Douglas":14860,"neu":14861,"तथा":14862,"##회":14863,"Its":14864,"##ivo":14865,"court":14866,"##면":14867,"##jí":14868,"parti":14869,"Sohn":14870,"##상":14871,"celui":14872,"Rose":14873,"bekannt":14874,"##ao":14875,"map":14876,"1858":14877,"wieku":14878,"playing":14879,"Fox":14880,"##dá":14881,"составе":14882,"Main":14883,"disco":14884,"##ം":14885,"ihren":14886,"staat":14887,"personas":14888,"francés":14889,"Non":14890,"csak":14891,"##dt":14892,"section":14893,"##зи":14894,"కూడా":14895,"appointed":14896,"##nou":14897,"Gordon":14898,"ente":14899,"park":14900,"distrito":14901,"##ö":14902,"collection":14903,"##werk":14904,"tutti":14905,"Civil":14906,"once":14907,"##get":14908,"Disney":14909,"která":14910,"pendant":14911,"##ši":14912,"2007an":14913,"##دا":14914,"Monte":14915,"zm":14916,"ant":14917,"tam":14918,"две":14919,"համար":14920,"##ಾ":14921,"Illinois":14922,"hon":14923,"Final":14924,"Du":14925,"##ary":14926,"personal":14927,"##ään":14928,"##מן":14929,"xuất":14930,"sea":14931,"idea":14932,"##յան":14933,"##sä":14934,"municipal":14935,"طرفیندن":14936,"אשר":14937,"thứ":14938,"talet":14939,"Республики":14940,"Commission":14941,"away":14942,"education":14943,"selon":14944,"##ora":14945,"hit":14946,"masa":14947,"Roberto":14948,"filme":14949,"##ych":14950,"##dra":14951,"Georges":14952,"Santo":14953,"##lag":14954,"Deze":14955,"##min":14956,"Summer":14957,"##ск":14958,"##ך":14959,"##vano":14960,"##ера":14961,"How":14962,"havde":14963,"##يات":14964,"bzw":14965,"Country":14966,"годах":14967,"FishBase":14968,"exemple":14969,"película":14970,"##pt":14971,"territorio":14972,"##tä":14973,"##жи":14974,"##დ":14975,"##ків":14976,"befindet":14977,"current":14978,"standard":14979,"июня":14980,"اک":14981,"must":14982,"donc":14983,"komt":14984,"##less":14985,"によって":14986,"vs":14987,"Major":14988,"cas":14989,"##iya":14990,"majd":14991,"350":14992,"zunächst":14993,"Video":14994,"##чки":14995,"##my":14996,"cuenta":14997,"##ই":14998,"nich":14999,"allem":15000,"##드":15001,"##ম":15002,"##zza":15003,"quella":15004,"punkt":15005,"Trade":15006,"Anderson":15007,"##ans":15008,"##ká":15009,"##ার":15010,"francesa":15011,"זו":15012,"Norte":15013,"leader":15014,"##če":15015,"dois":15016,"fils":15017,"particular":15018,"enw":15019,"##ör":15020,"Hamburg":15021,"Microsoft":15022,"##cos":15023,"##tions":15024,"##ր":15025,"##ść":15026,"định":15027,"##vet":15028,"politique":15029,"сентября":15030,"force":15031,"ohne":15032,"mil":15033,"police":15034,"##ി":15035,"متحدہ":15036,"può":15037,"октября":15038,"kasadpan":15039,"fast":15040,"ישראל":15041,"person":15042,"##ין":15043,"së":15044,"black":15045,"ese":15046,"Integrated":15047,"río":15048,"đồng":15049,"pot":15050,"Pristupljeno":15051,"1856":15052,"lifayels":15053,"hình":15054,"dua":15055,"proceni":15056,"gitas":15057,"ред":15058,"після":15059,"była":15060,"##тан":15061,"Sport":15062,"Education":15063,"##owa":15064,"##ени":15065,"mest":15066,"Leipzig":15067,"Dopo":15068,"polo":15069,"##व":15070,"##ého":15071,"##رة":15072,"1854":15073,"Report":15074,"classification":15075,"Casa":15076,"kilometers":15077,"Hong":15078,"return":15079,"##ൽ":15080,"##don":15081,"diverse":15082,"##ści":15083,"Howard":15084,"##ē":15085,"kang":15086,"suas":15087,"##nto":15088,"##ير":15089,"yer":15090,"così":15091,"character":15092,"Deutschen":15093,"##ската":15094,"Heart":15095,"besar":15096,"daerah":15097,"##عة":15098,"arī":15099,"File":15100,"Allen":15101,"though":15102,"##リー":15103,"##zh":15104,"Like":15105,"##ર":15106,"does":15107,"##ela":15108,"taken":15109,"йылға":15110,"Internacional":15111,"Plant":15112,"свою":15113,"principalmente":15114,"104":15115,"##чка":15116,"cinco":15117,"##па":15118,"##pan":15119,"Southern":15120,"ella":15121,"aver":15122,"Massachusetts":15123,"ја":15124,"##త":15125,"aunque":15126,"my":15127,"ham":15128,"Ltd":15129,"across":15130,"இந்த":15131,"född":15132,"weitere":15133,"जो":15134,"Mountain":15135,"especie":15136,"との":15137,"process":15138,"Three":15139,"nakon":15140,"##tto":15141,"یارانمیش":15142,"##į":15143,"##ზე":15144,"Nations":15145,"Campeonato":15146,"bere":15147,"start":15148,"##ama":15149,"ایشلدنلری":15150,"1849":15151,"مقالهسیندن":15152,"opp":15153,"##ola":15154,"gdzie":15155,"ویکیپدیاسینین":15156,"گؤتورولوبدور":15157,"chef":15158,"یوْخلانیلیبدیر":15159,"Theatre":15160,"español":15161,"culture":15162,"square":15163,"حتى":15164,"hy":15165,"pueden":15166,"وفي":15167,"##या":15168,"fase":15169,"diversos":15170,"##ast":15171,"##det":15172,"situada":15173,"books":15174,"banyak":15175,"tan":15176,"##μα":15177,"##ій":15178,"arasında":15179,"stor":15180,"##ava":15181,"sine":15182,"samo":15183,"##트":15184,"aby":15185,"##tek":15186,"##lari":15187,"##iste":15188,"mal":15189,"##kar":15190,"letech":15191,"##ota":15192,"##نی":15193,"bản":15194,"være":15195,"##дан":15196,"##ები":15197,"good":15198,"Joan":15199,"عنوان":15200,"tid":15201,"viên":15202,"inn":15203,"##cion":15204,"Planet":15205,"##ಗೆ":15206,"partido":15207,"sang":15208,"Concise":15209,"geen":15210,"##ário":15211,"Anh":15212,"vardır":15213,"début":15214,"##্য":15215,"Village":15216,"help":15217,"##ân":15218,"っている":15219,"##ய":15220,"##い":15221,"huyện":15222,"Colombia":15223,"1855":15224,"##կ":15225,"Frankfurt":15226,"deur":15227,"guitar":15228,"dies":15229,"hand":15230,"##һы":15231,"##ք":15232,"##η":15233,"Georgia":15234,"##ssä":15235,"रूप":15236,"dụng":15237,"##ика":15238,"Volume":15239,"##mis":15240,"##rsi":15241,"festival":15242,"daughter":15243,"Christopher":15244,"zone":15245,"##ે":15246,"source":15247,"##ön":15248,"nuevo":15249,"апреля":15250,"##iin":15251,"genre":15252,"にも":15253,"Marc":15254,"округу":15255,"Toronto":15256,"motor":15257,"##স":15258,"które":15259,"fick":15260,"ulohan":15261,"##iden":15262,"white":15263,"homme":15264,"település":15265,"##нь":15266,"її":15267,"Catherine":15268,"Nahimutang":15269,"##º":15270,"Québec":15271,"klimatzonen":15272,"vùng":15273,"##ką":15274,"##во":15275,"##лары":15276,"Soviet":15277,"тому":15278,"##ץ":15279,"##క":15280,"Business":15281,"performed":15282,"когда":15283,"events":15284,"##ته":15285,"Greek":15286,"थासय्":15287,"##ī":15288,"todas":15289,"ada":15290,"maja":15291,"##ൻ":15292,"mother":15293,"وجود":15294,"##нан":15295,"код":15296,"نوں":15297,"klub":15298,"##נות":15299,"families":15300,"жер":15301,"papel":15302,"##에는":15303,"minutes":15304,"kawasan":15305,"less":15306,"1852":15307,"Tokyo":15308,"стала":15309,"години":15310,"cause":15311,"presente":15312,"currently":15313,"saveznoj":15314,"ریاستہائے":15315,"ռուս":15316,"##ლი":15317,"Tim":15318,"äbinons":15319,"út":15320,"dira":15321,"tên":15322,"Mexican":15323,"klima":15324,"мира":15325,"پس":15326,"області":15327,"kod":15328,"get":15329,"##cję":15330,"gen":15331,"Norman":15332,"کہ":15333,"beberapa":15334,"3000":15335,"terra":15336,"sold":15337,"ಒಂದು":15338,"lei":15339,"##sto":15340,"cao":15341,"##iga":15342,"##vy":15343,"drama":15344,"antara":15345,"تحت":15346,"alcuni":15347,"course":15348,"Manchester":15349,"фр":15350,"הם":15351,"Northern":15352,"deutscher":15353,"##న్":15354,"##ない":15355,"##ить":15356,"##wał":15357,"энциклопедия":15358,"nama":15359,"415":15360,"3월":15361,"gave":15362,"largest":15363,"##tin":15364,"stage":15365,"située":15366,"##ση":15367,"cuatro":15368,"##ije":15369,"##స్":15370,"##sin":15371,"Magazine":15372,"Moore":15373,"features":15374,"সালে":15375,"kunne":15376,"Kevin":15377,"upon":15378,"begann":15379,"Will":15380,"##ō":15381,"##కు":15382,"Федерации":15383,"Boy":15384,"kui":15385,"##ض":15386,"##적인":15387,"##ries":15388,"Deutsche":15389,"Harper":15390,"##art":15391,"mayo":15392,"ancora":15393,"##tzen":15394,"países":15395,"##ール":15396,"üçün":15397,"##ping":15398,"##का":15399,"Stanley":15400,"bekend":15401,"alto":15402,"Minor":15403,"##vos":15404,"Kalkulado":15405,"##ಸ್":15406,"wilayah":15407,"Philippe":15408,"sydöstra":15409,"170":15410,"Hotel":15411,"nouvelle":15412,"##чна":15413,"##gia":15414,"उत्तराखण्ड":15415,"##мі":15416,"##J":15417,"##stand":15418,"##ших":15419,"фон":15420,"आणि":15421,"شهرستان":15422,"##ਲ":15423,"##aria":15424,"जाता":15425,"Human":15426,"italiana":15427,"##ție":15428,"État":15429,"وهو":15430,"pristupljeno":15431,"Walker":15432,"includes":15433,"##ott":15434,"خلال":15435,"##ری":15436,"Pakistan":15437,"magazine":15438,"##վում":15439,"ebenfalls":15440,"Middle":15441,"##jąc":15442,"obras":15443,"ani":15444,"##ningen":15445,"directed":15446,"Gabriel":15447,"både":15448,"tenía":15449,"##ست":15450,"##ità":15451,"ноября":15452,"change":15453,"grad":15454,"oa":15455,"भारतया":15456,"songs":15457,"seconda":15458,"FM":15459,"##dar":15460,"##သည်":15461,"Omgivningarna":15462,"##מי":15463,"##ラ":15464,"##ias":15465,"##ული":15466,"Death":15467,"##lta":15468,"##тер":15469,"##ص":15470,"##hus":15471,"##ா":15472,"Catholic":15473,"Численность":15474,"Hoa":15475,"Michigan":15476,"ইউনিয়ন":15477,"##vin":15478,"تعداد":15479,"Director":15480,"Universal":15481,"##מות":15482,"hacia":15483,"kommun":15484,"road":15485,"andra":15486,"##imo":15487,"sale":15488,"##بة":15489,"##nne":15490,"ouest":15491,"sé":15492,"และ":15493,"quello":15494,"sense":15495,"которых":15496,"Finland":15497,"ins":15498,"alt":15499,"##ੇ":15500,"cultura":15501,"kako":15502,"Οι":15503,"##ється":15504,"statunitense":15505,"Sports":15506,"ditu":15507,"##its":15508,"điểm":15509,"quali":15510,"یکی":15511,"diferentes":15512,"designed":15513,"Burton":15514,"##či":15515,"Gary":15516,"DNA":15517,"varios":15518,"##دی":15519,"##port":15520,"Bell":15521,"##ала":15522,"selbst":15523,"##ierte":15524,"##asi":15525,"しかし":15526,"neue":15527,"##гу":15528,"##ish":15529,"уже":15530,"También":15531,"بخش":15532,"quelques":15533,"m²":15534,"##ста":15535,"Ze":15536,"té":15537,"##ség":15538,"Small":15539,"1851":15540,"text":15541,"mà":15542,"##heit":15543,"ordre":15544,"##ща":15545,"ona":15546,"lange":15547,"وچ":15548,"Jane":15549,"tự":15550,"Johnny":15551,"##द":15552,"103":15553,"ger":15554,"months":15555,"originally":15556,"issue":15557,"gol":15558,"##fen":15559,"Maurice":15560,"##dom":15561,"##house":15562,"##ню":15563,"phía":15564,"1853":15565,"sol":15566,"famiglia":15567,"libro":15568,"parts":15569,"##گ":15570,"1ᵉʳ":15571,"hebben":15572,"shows":15573,"tae":15574,"##ному":15575,"ensemble":15576,"##wie":15577,"بالإنجليزية":15578,"Coppa":15579,"depois":15580,"##leg":15581,"7th":15582,"celle":15583,"maggio":15584,"settembre":15585,"##tore":15586,"##ios":15587,"Москва":15588,"генерал":15589,"##פה":15590,"Since":15591,"##ો":15592,"مثل":15593,"##yo":15594,"Ab":15595,"Est":15596,"других":15597,"vị":15598,"direction":15599,"##یی":15600,"range":15601,"Beach":15602,"altra":15603,"での":15604,"cách":15605,"quindi":15606,"mid":15607,"mod":15608,"##ья":15609,"usa":15610,"Ռուսաստանի":15611,"##din":15612,"##তে":15613,"##ský":15614,"grup":15615,"league":15616,"##ient":15617,"##ował":15618,"##ial":15619,"format":15620,"apenas":15621,"ад":15622,"katalog":15623,"Irish":15624,"cuộc":15625,"low":15626,"digunakan":15627,"##ların":15628,"##king":15629,"center":15630,"Ivan":15631,"vu":15632,"tri":15633,"гг":15634,"église":15635,"##tel":15636,"Hitler":15637,"барамехь":15638,"tegen":15639,"regione":15640,"década":15641,"##bile":15642,"шыв":15643,"##că":15644,"último":15645,"neuen":15646,"groups":15647,"climate":15648,"ги":15649,"toda":15650,"Denne":15651,"seen":15652,"##čka":15653,"мәліметтер":15654,"anderem":15655,"nova":15656,"##мы":15657,"##ली":15658,"1846":15659,"sammen":15660,"Way":15661,"nhưng":15662,"giugno":15663,"Province":15664,"Kỳ":15665,"Cross":15666,"наук":15667,"Для":15668,"בית":15669,"regular":15670,"đội":15671,"anterior":15672,"##tum":15673,"Vuonna":15674,"##ñ":15675,"##erde":15676,"Arten":15677,"##liga":15678,"Giuseppe":15679,"115":15680,"roi":15681,"Light":15682,"##ови":15683,"##mia":15684,"##ší":15685,"bởi":15686,"aantal":15687,"ba":15688,"followed":15689,"planet":15690,"##িক":15691,"чтобы":15692,"Venezuela":15693,"ku":15694,"##ర్":15695,"quanto":15696,"##ు":15697,"##tur":15698,"##lé":15699,"Centro":15700,"coach":15701,"classe":15702,"##gs":15703,"Over":15704,"##ev":15705,"Johan":15706,"lập":15707,"కళాశాల":15708,"##lon":15709,"##али":15710,"##red":15711,"##ום":15712,"##ド":15713,"##ٹ":15714,"departamento":15715,"##jes":15716,"##ngen":15717,"disse":15718,"##menti":15719,"stycznia":15720,"Norge":15721,"training":15722,"phải":15723,"##ński":15724,"це":15725,"##ына":15726,"Historia":15727,"##ngan":15728,"Name":15729,"septiembre":15730,"lớn":15731,"ու":15732,"##տ":15733,"Mar":15734,"##ా":15735,"vocals":15736,"##երը":15737,"denen":15738,"brother":15739,"Clark":15740,"cánh":15741,"##ности":15742,"##tori":15743,"taun":15744,"орналасқан":15745,"Mais":15746,"##یر":15747,"##зе":15748,"Josef":15749,"Fall":15750,"##τα":15751,"##か":15752,"Encyclopædia":15753,"statt":15754,"##ров":15755,"##ğı":15756,"други":15757,"годы":15758,"Suomen":15759,"1847":15760,"julio":15761,"medio":15762,"gennaio":15763,"الله":15764,"light":15765,"telt":15766,"seven":15767,"##ек":15768,"numero":15769,"García":15770,"biztanle":15771,"##mit":15772,"##гі":15773,"##gh":15774,"1815":15775,"lado":15776,"##oval":15777,"##ू":15778,"pels":15779,"##usi":15780,"episodio":15781,"completed":15782,"século":15783,"âge":15784,"Although":15785,"karena":15786,"Kelly":15787,"första":15788,"##lijk":15789,"double":15790,"jeden":15791,"##ría":15792,"##rak":15793,"##cal":15794,"##ستان":15795,"Alberto":15796,"##hn":15797,"##лык":15798,"##llä":15799,"dabei":15800,"##ई":15801,"##て":15802,"##zar":15803,"riktning":15804,"##like":15805,"få":15806,"Milan":15807,"mientras":15808,"Meter":15809,"Loire":15810,"##ит":15811,"##ო":15812,"हे":15813,"giới":15814,"lenghe":15815,"dalle":15816,"220":15817,"Marcus":15818,"Institution":15819,"##yon":15820,"111":15821,"gdje":15822,"Macmillan":15823,"Ontario":15824,"januar":15825,"uns":15826,"Jahrhunderts":15827,"importantes":15828,"Alpes":15829,"terme":15830,"Jesus":15831,"án":15832,"Hermann":15833,"##iz":15834,"Dance":15835,"segle":15836,"थी":15837,"bad":15838,"test":15839,"центр":15840,"февраля":15841,"pag":15842,"lista":15843,"107":15844,"108":15845,"Hamilton":15846,"##oli":15847,"часть":15848,"##vät":15849,"París":15850,"size":15851,"территории":15852,"zou":15853,"##gio":15854,"superior":15855,"cargo":15856,"senere":15857,"mise":15858,"ISO":15859,"##ου":15860,"най":15861,"##well":15862,"pedig":15863,"cinq":15864,"ante":15865,"negli":15866,"Frantziako":15867,"##ి":15868,"szerint":15869,"junio":15870,"##bau":15871,"permet":15872,"featured":15873,"Сан":15874,"killed":15875,"lượng":15876,"##zeit":15877,"Popis":15878,"Ann":15879,"##ions":15880,"senza":15881,"presenta":15882,"Stand":15883,"habagatan":15884,"governo":15885,"##ības":15886,"##ція":15887,"ст":15888,"luglio":15889,"ottobre":15890,"##수":15891,"##owego":15892,"sue":15893,"Billy":15894,"dir":15895,"کر":15896,"истории":15897,"Mann":15898,"Wild":15899,"semi":15900,"volume":15901,"ثم":15902,"cara":15903,"とは":15904,"tej":15905,"##smo":15906,"panjang":15907,"nahm":15908,"##ث":15909,"usually":15910,"countries":15911,"##קה":15912,"spielte":15913,"##rik":15914,"##ê":15915,"throughout":15916,"1845":15917,"daripada":15918,"##ात":15919,"##же":15920,"##ским":15921,"##tico":15922,"Năm":15923,"bod":15924,"Back":15925,"##wi":15926,"Ferdinand":15927,"desa":15928,"పాఠశాల":15929,"père":15930,"Health":15931,"##lde":15932,"Provincia":15933,"edición":15934,"360":15935,"moderne":15936,"ciutat":15937,"##oon":15938,"районе":15939,"Vietnam":15940,"bagi":15941,"verso":15942,"reported":15943,"étant":15944,"Hugo":15945,"More":15946,"fikk":15947,"##ից":15948,"lokala":15949,"carrera":15950,"##يل":15951,"1842":15952,"##ec":15953,"može":15954,"であった":15955,"století":15956,"tidligere":15957,"phần":15958,"##ల్":15959,"ibabaw":15960,"Ուկրաինայի":15961,"Nelson":15962,"##zio":15963,"alguns":15964,"Technology":15965,"годзе":15966,"immer":15967,"Puerto":15968,"trouve":15969,"##イ":15970,"##uit":15971,"finished":15972,"Del":15973,"##ئی":15974,"page":15975,"##yan":15976,"към":15977,"##ían":15978,"Philadelphia":15979,"remained":15980,"несколько":15981,"ਸੀ":15982,"##car":15983,"Congress":15984,"Edition":15985,"##ду":15986,"død":15987,"enero":15988,"ביותר":15989,"период":15990,"bằng":15991,"jonka":15992,"unos":15993,"dicembre":15994,"##اس":15995,"იყო":15996,"##скую":15997,"##eo":15998,"amihanan":15999,"##น":16000,"trở":16001,"oro":16002,"Field":16003,"surface":16004,"Down":16005,"membres":16006,"فہرست":16007,"cum":16008,"schools":16009,"Barbara":16010,"Fire":16011,"asli":16012,"##ades":16013,"##ನ್":16014,"##ವು":16015,"##ální":16016,"240":16017,"leading":16018,"ਇੱਕ":16019,"ní":16020,"players":16021,"sumala":16022,"##ture":16023,"transport":16024,"Hospital":16025,"belödanis":16026,"##П":16027,"khu":16028,"según":16029,"##ове":16030,"които":16031,"Britain":16032,"sotto":16033,"norsk":16034,"platsen":16035,"##ków":16036,"están":16037,"above":16038,"##gel":16039,"Not":16040,"kommunen":16041,"software":16042,"obyvateľov":16043,"##נית":16044,"Studio":16045,"##idade":16046,"1844":16047,"Stuttgart":16048,"Sul":16049,"##dem":16050,"époque":16051,"ABC":16052,"ప్రభుత్వ":16053,"##ği":16054,"sites":16055,"Населення":16056,"DJ":16057,"byly":16058,"Nederland":16059,"това":16060,"vuoden":16061,"Alice":16062,"mondo":16063,"biasonyo":16064,"close":16065,"##wych":16066,"molt":16067,"cover":16068,"##ones":16069,"##ap":16070,"đại":16071,"ещё":16072,"Dave":16073,"##xe":16074,"membre":16075,"Titel":16076,"última":16077,"ainda":16078,"هم":16079,"individual":16080,"##hed":16081,"wenn":16082,"college":16083,"106":16084,"##miento":16085,"Moon":16086,"может":16087,"##ša":16088,"geslacht":16089,"било":16090,"gas":16091,"près":16092,"##uan":16093,"##adas":16094,"foar":16095,"podczas":16096,"میکند":16097,"Sri":16098,"##ων":16099,"edo":16100,"Andrea":16101,"før":16102,"debido":16103,"ਤੋਂ":16104,"##sy":16105,"either":16106,"##tud":16107,"contract":16108,"período":16109,"prin":16110,"##лу":16111,"##jem":16112,"kemudian":16113,"##dade":16114,"##ule":16115,"##sky":16116,"hợp":16117,"week":16118,"##shi":16119,"##mal":16120,"estos":16121,"Free":16122,"više":16123,"região":16124,"cả":16125,"Nick":16126,"Directory":16127,"##ին":16128,"112":16129,"già":16130,"##ony":16131,"##ವಾಗಿ":16132,"вид":16133,"höjddata":16134,"begin":16135,"président":16136,"francese":16137,"love":16138,"한다":16139,"Near":16140,"قد":16141,"గ్రామానికి":16142,"##kte":16143,"sistem":16144,"SAD":16145,"##ρ":16146,"Jazz":16147,"1814":16148,"Spain":16149,"awarded":16150,"dernier":16151,"یہ":16152,"##وی":16153,"ਹਨ":16154,"##ében":16155,"آنها":16156,"jeung":16157,"gewann":16158,"muito":16159,"##רים":16160,"##لی":16161,"##ச்":16162,"##انی":16163,"högst":16164,"elles":16165,"##ু":16166,"aircraft":16167,"1837":16168,"ellos":16169,"دیگر":16170,"drie":16171,"Jorge":16172,"##лен":16173,"век":16174,"tika":16175,"##дар":16176,"aprile":16177,"адам":16178,"Vincent":16179,"##tia":16180,"でも":16181,"Leben":16182,"##ха":16183,"bay":16184,"diciembre":16185,"esa":16186,"mezi":16187,"trường":16188,"##skiego":16189,"Val":16190,"##цию":16191,"कर":16192,"Dark":16193,"Während":16194,"kā":16195,"128":16196,"able":16197,"Lawrence":16198,"space":16199,"##ech":16200,"chez":16201,"Dat":16202,"##ult":16203,"Rudolf":16204,"simple":16205,"##stein":16206,"Në":16207,"साथ":16208,"которой":16209,"még":16210,"rôle":16211,"##nden":16212,"já":16213,"saat":16214,"termine":16215,"##bes":16216,"tenia":16217,"##ô":16218,"##sed":16219,"##fall":16220,"1839":16221,"eight":16222,"Theater":16223,"specie":16224,"phân":16225,"Jimmy":16226,"Nederlandse":16227,"syns":16228,"Zu":16229,"##قة":16230,"##wski":16231,"Et":16232,"клуб":16233,"##kých":16234,"Adolf":16235,"département":16236,"##ців":16237,"Orthoptera":16238,"##rse":16239,"##ının":16240,"##ение":16241,"Anton":16242,"situé":16243,"chức":16244,"Med":16245,"след":16246,"involved":16247,"##uto":16248,"##מו":16249,"Hun":16250,"##ał":16251,"bili":16252,"##skim":16253,"##lah":16254,"ҺӨ":16255,"1834":16256,"करने":16257,"niveau":16258,"frente":16259,"About":16260,"##int":16261,"Polski":16262,"kadar":16263,"Single":16264,"Sherman":16265,"hab":16266,"مربع":16267,"primordial":16268,"noviembre":16269,"1835":16270,"agua":16271,"##ches":16272,"ogni":16273,"waard":16274,"##ً":16275,"день":16276,"Code":16277,"##mon":16278,"Missouri":16279,"Nobel":16280,"Baden":16281,"madre":16282,"استان":16283,"región":16284,"çok":16285,"esas":16286,"జిల్లా":16287,"added":16288,"הראשון":16289,"interno":16290,"##ਾਂ":16291,"bin":16292,"federal":16293,"##rta":16294,"##وم":16295,"109":16296,"##ving":16297,"least":16298,"##rk":16299,"mukaan":16300,"või":16301,"Township":16302,"Charlie":16303,"pol":16304,"nuovo":16305,"Minnesota":16306,"##dur":16307,"получил":16308,"kiradi":16309,"حسب":16310,"Eastern":16311,"##ort":16312,"##itat":16313,"estava":16314,"tamién":16315,"states":16316,"##nh":16317,"много":16318,"persona":16319,"##ини":16320,"##ських":16321,"урнашкан":16322,"##주":16323,"Khan":16324,"trước":16325,"##oja":16326,"Systema":16327,"eventually":16328,"நவம்பர்":16329,"gang":16330,"wegen":16331,"اتے":16332,"كل":16333,"ek":16334,"שם":16335,"Come":16336,"Barat":16337,"द्वारा":16338,"gobierno":16339,"fram":16340,"största":16341,"attack":16342,"##å":16343,"pertsona":16344,"formation":16345,"##ран":16346,"1838":16347,"porque":16348,"Dead":16349,"##će":16350,"##ود":16351,"Menschen":16352,"##ось":16353,"##pes":16354,"PC":16355,"استفاده":16356,"##sing":16357,"Guy":16358,"##და":16359,"میلادی":16360,"એક":16361,"който":16362,"schon":16363,"135":16364,"horisonten":16365,"Jordan":16366,"12월":16367,"##bor":16368,"##nio":16369,"##લ":16370,"היו":16371,"غير":16372,"नं":16373,"Era":16374,"##шы":16375,"##led":16376,"Ana":16377,"listopada":16378,"##ors":16379,"##ना":16380,"##gue":16381,"related":16382,"##сі":16383,"kali":16384,"##gos":16385,"めた":16386,"дека":16387,"कुल":16388,"című":16389,"Blues":16390,"điều":16391,"už":16392,"metres":16393,"gồm":16394,"Jonathan":16395,"trung":16396,"Later":16397,"nivel":16398,"##film":16399,"especies":16400,"##ères":16401,"giiniton":16402,"storia":16403,"نسبة":16404,"##ming":16405,"##tle":16406,"habitatges":16407,"Porto":16408,"##ová":16409,"artist":16410,"Ten":16411,"თარიღი":16412,"artean":16413,"Junior":16414,"kinabugnawan":16415,"kinainitan":16416,"##су":16417,"kwam":16418,"##dre":16419,"Pape":16420,"##ab":16421,"##nice":16422,"Mas":16423,"Conference":16424,"hội":16425,"gehörte":16426,"tarkibiga":16427,"##èt":16428,"би":16429,"plant":16430,"##ো":16431,"Boys":16432,"##kov":16433,"Ook":16434,"godina":16435,"1843":16436,"Donald":16437,"##kas":16438,"##나":16439,"##сон":16440,"##nna":16441,"яка":16442,"Nicolas":16443,"anak":16444,"##rice":16445,"अभिगमन":16446,"մարդ":16447,"##ак":16448,"đoàn":16449,"jü":16450,"אל":16451,"кои":16452,"gibi":16453,"regional":16454,"degree":16455,"##ಲ್":16456,"##ット":16457,"యొక్క":16458,"##ár":16459,"##ance":16460,"Trong":16461,"##ες":16462,"##ク":16463,"4월":16464,"opštini":16465,"Ryan":16466,"نسخة":16467,"նաև":16468,"kota":16469,"student":16470,"എന്ന":16471,"లేదు":16472,"##bin":16473,"կայքում":16474,"při":16475,"##ių":16476,"##ách":16477,"replaced":16478,"წაკითხვის":16479,"cases":16480,"##ай":16481,"κατά":16482,"##ший":16483,"jaren":16484,"Management":16485,"είχε":16486,"rằng":16487,"muerte":16488,"września":16489,"##eti":16490,"provided":16491,"ویکیپیڈیا":16492,"Jacob":16493,"rok":16494,"##אי":16495,"svoje":16496,"##nder":16497,"##خ":16498,"tích":16499,"1831":16500,"##чу":16501,"huet":16502,"##тов":16503,"grupos":16504,"rue":16505,"##تر":16506,"existe":16507,"marinespecies":16508,"após":16509,"которая":16510,"unit":16511,"wis":16512,"Amt":16513,"sondern":16514,"genannt":16515,"Course":16516,"Río":16517,"Gruppe":16518,"Duke":16519,"одного":16520,"##iske":16521,"др":16522,"untuak":16523,"centrale":16524,"##రు":16525,"##مة":16526,"sta":16527,"##iche":16528,"jossa":16529,"##sal":16530,"medal":16531,"Según":16532,"など":16533,"SIMBAD":16534,"eau":16535,"pösods":16536,"Sürfat":16537,"läs":16538,"otra":16539,"##ər":16540,"см":16541,"winning":16542,"vice":16543,"छगू":16544,"kraju":16545,"erstmals":16546,"Tod":16547,"Sarah":16548,"chủ":16549,"Asteroid":16550,"##ból":16551,"sera":16552,"כמו":16553,"casi":16554,"##tó":16555,"##aire":16556,"proti":16557,"Channel":16558,"##wany":16559,"byen":16560,"Ele":16561,"Magyar":16562,"étaient":16563,"Indiana":16564,"prvi":16565,"titolo":16566,"self":16567,"##צה":16568,"hos":16569,"Desde":16570,"fünf":16571,"revista":16572,"کشور":16573,"Terra":16574,"##cho":16575,"jezik":16576,"##سی":16577,"##وس":16578,"cơ":16579,"##чен":16580,"##್":16581,"Ian":16582,"##ати":16583,"independent":16584,"Tropical":16585,"goal":16586,"##pp":16587,"też":16588,"##ized":16589,"1812":16590,"thường":16591,"trình":16592,"1836":16593,"Dette":16594,"editor":16595,"своей":16596,"echter":16597,"##rit":16598,"##ül":16599,"ul":16600,"##wej":16601,"##ow":16602,"область":16603,"nieuwe":16604,"##정":16605,"1644":16606,"producer":16607,"Levy":16608,"dones":16609,"##ила":16610,"роль":16611,"vista":16612,"nature":16613,"खने":16614,"presso":16615,"га":16616,"##전":16617,"gjennom":16618,"Reino":16619,"certain":16620,"több":16621,"competition":16622,"1841":16623,"star":16624,"##од":16625,"normal":16626,"estar":16627,"117":16628,"Maydoni":16629,"группы":16630,"##dorf":16631,"Stadium":16632,"hänen":16633,"går":16634,"участие":16635,"έχει":16636,"planta":16637,"nhận":16638,"kommune":16639,"zde":16640,"internacional":16641,"anu":16642,"времени":16643,"Franco":16644,"sidlakan":16645,"##kim":16646,"Winter":16647,"##var":16648,"algunos":16649,"10월":16650,"##డు":16651,"##maan":16652,"##ovi":16653,"होता":16654,"aphia":16655,"taxdetails":16656,"##ун":16657,"giải":16658,"Museo":16659,"##יר":16660,"##שה":16661,"##ić":16662,"Bruno":16663,"190":16664,"deuxième":16665,"##over":16666,"Harris":16667,"studies":16668,"praefecturae":16669,"Rosa":16670,"grote":16671,"western":16672,"став":16673,"రహదారి":16674,"##ийн":16675,"isə":16676,"compte":16677,"##vad":16678,"França":16679,"Com":16680,"なお":16681,"##ара":16682,"too":16683,"squadra":16684,"Keith":16685,"##amento":16686,"##ције":16687,"##ец":16688,"mediana":16689,"Ross":16690,"rights":16691,"امریکا":16692,"##jski":16693,"otro":16694,"atas":16695,"##ční":16696,"Greenwood":16697,"##lat":16698,"León":16699,"camp":16700,"सन्":16701,"sulod":16702,"René":16703,"einige":16704,"որը":16705,"gehört":16706,"clubs":16707,"தமிழ்நாடு":16708,"1600":16709,"Các":16710,"future":16711,"zoals":16712,"##ként":16713,"siden":16714,"seme":16715,"sabuah":16716,"##ző":16717,"450":16718,"ver":16719,"entonces":16720,"ਤੇ":16721,"ensuite":16722,"##تی":16723,"##az":16724,"Gesellschaft":16725,"##аў":16726,"##ania":16727,"##ਤ":16728,"##ým":16729,"Chief":16730,"экология":16731,"lên":16732,"##לים":16733,"##ことが":16734,"Kansas":16735,"etapa":16736,"える":16737,"fort":16738,"Atlantic":16739,"##py":16740,"previous":16741,"##لة":16742,"7월":16743,"Harvard":16744,"little":16745,"##uma":16746,"Railway":16747,"##цев":16748,"mao":16749,"כאשר":16750,"estilo":16751,"1832":16752,"Girls":16753,"##kého":16754,"##দের":16755,"Apollo":16756,"##hr":16757,"##명":16758,"1833":16759,"које":16760,"tweede":16761,"female":16762,"Pays":16763,"##ská":16764,"Brazil":16765,"samme":16766,"etxebizitza":16767,"systems":16768,"##elt":16769,"##ден":16770,"їх":16771,"##logia":16772,"Four":16773,"Landkreis":16774,"insieme":16775,"1820":16776,"End":16777,"ancien":16778,"##ји":16779,"##ario":16780,"estadounidense":16781,"Germania":16782,"Frau":16783,"či":16784,"febbraio":16785,"تاریخ":16786,"MTV":16787,"Third":16788,"oma":16789,"בו":16790,"नहीं":16791,"##לי":16792,"##ення":16793,"##чних":16794,"##čke":16795,"Jason":16796,"Haus":16797,"Timur":16798,"Teatro":16799,"3rd":16800,"Polsce":16801,"Andy":16802,"uk":16803,"hele":16804,"thống":16805,"##цу":16806,"sẽ":16807,"##ute":16808,"Estadística":16809,"Benjamin":16810,"gmina":16811,"Renaissance":16812,"##bio":16813,"febrero":16814,"##llen":16815,"##vanje":16816,"આવેલા":16817,"##eno":16818,"trat":16819,"qiladi":16820,"##нд":16821,"##ef":16822,"đêm":16823,"##sus":16824,"##pis":16825,"אחד":16826,"##ակ":16827,"##wo":16828,"wel":16829,"Head":16830,"##eu":16831,"##ത്തിൽ":16832,"oltre":16833,"##ires":16834,"Gwefan":16835,"Opera":16836,"Salvador":16837,"##き":16838,"Ils":16839,"Machine":16840,"iar":16841,"Kabupaten":16842,"Segunda":16843,"environ":16844,"بعض":16845,"مشارکین":16846,"##А":16847,"##чы":16848,"لم":16849,"indrindra":16850,"phố":16851,"##ře":16852,"##ί":16853,"двух":16854,"##되어":16855,"novo":16856,"##ischer":16857,"anul":16858,"##У":16859,"tempat":16860,"Herbert":16861,"zbog":16862,"rather":16863,"הברית":16864,"Baker":16865,"##schaft":16866,"##から":16867,"pay":16868,"তার":16869,"És":16870,"provide":16871,"Islands":16872,"kecamatan":16873,"port":16874,"Oliver":16875,"scène":16876,"publication":16877,"##или":16878,"whose":16879,"rol":16880,"nombreux":16881,"##вали":16882,"##ats":16883,"Leo":16884,"tien":16885,"kết":16886,"Fred":16887,"230":16888,"##ym":16889,"pdf":16890,"1793":16891,"ще":16892,"##эн":16893,"рік":16894,"đi":16895,"##ase":16896,"##čne":16897,"##ped":16898,"Sierra":16899,"Asian":16900,"Scotland":16901,"αλλά":16902,"night":16903,"kleine":16904,"nummer":16905,"placed":16906,"затем":16907,"##och":16908,"##ої":16909,"canal":16910,"мемлекеттік":16911,"ground":16912,"sản":16913,"Алматы":16914,"dues":16915,"राज्य":16916,"Mac":16917,"fourth":16918,"توسط":16919,"toute":16920,"largo":16921,"við":16922,"##した":16923,"digital":16924,"Erik":16925,"##ća":16926,"Form":16927,"Graham":16928,"ему":16929,"minister":16930,"##ən":16931,"городских":16932,"має":16933,"direct":16934,"manager":16935,"ayant":16936,"Kreis":16937,"don":16938,"gjorde":16939,"##च":16940,"genom":16941,"ag":16942,"además":16943,"Lincoln":16944,"Sein":16945,"##aux":16946,"jour":16947,"tiếp":16948,"Collins":16949,"##ций":16950,"versión":16951,"generale":16952,"عشر":16953,"##ческой":16954,"Adams":16955,"bass":16956,"bilan":16957,"forte":16958,"9월":16959,"член":16960,"Александр":16961,"##ата":16962,"namn":16963,"code":16964,"river":16965,"fatto":16966,"bezeichnet":16967,"123":16968,"##တွင်":16969,"seines":16970,"první":16971,"déi":16972,"października":16973,"udalerrian":16974,"Matt":16975,"But":16976,"114":16977,"##skog":16978,"میباشد":16979,"Wright":16980,"##ics":16981,"label":16982,"czerwca":16983,"Songs":16984,"##아":16985,"Hy":16986,"にある":16987,"##ward":16988,"всех":16989,"113":16990,"##цыі":16991,"ami":16992,"##zó":16993,"##dio":16994,"grudnia":16995,"hoặc":16996,"##weg":16997,"##rii":16998,"tog":16999,"##ней":17000,"success":17001,"##ந்த":17002,"##ța":17003,"health":17004,"Republik":17005,"##кий":17006,"kimi":17007,"##ნის":17008,"яких":17009,"##ол":17010,"ISSN":17011,"owned":17012,"Body":17013,"##സ്":17014,"nueva":17015,"três":17016,"Prize":17017,"quattro":17018,"##umi":17019,"له":17020,"##ned":17021,"##적으로":17022,"oan":17023,"sú":17024,"##xo":17025,"##gal":17026,"##íu":17027,"carrière":17028,"HMS":17029,"review":17030,"loại":17031,"mission":17032,"Tag":17033,"author":17034,"##ік":17035,"##лись":17036,"introduced":17037,"ever":17038,"##oma":17039,"1821":17040,"Sekolah":17041,"##گاه":17042,"upp":17043,"ran":17044,"arts":17045,"americano":17046,"بھی":17047,"##wer":17048,"##rà":17049,"вместе":17050,"Після":17051,"750":17052,"##ük":17053,"##hl":17054,"corpo":17055,"Fu":17056,"##ento":17057,"erst":17058,"محفوظة":17059,"##logie":17060,"##ški":17061,"densidad":17062,"ուկր":17063,"Castle":17064,"مدينة":17065,"diesen":17066,"stated":17067,"tienen":17068,"էին":17069,"porte":17070,"seis":17071,"себе":17072,"Baby":17073,"ενώ":17074,"rund":17075,"##ე":17076,"taona":17077,"##нт":17078,"##lles":17079,"Champion":17080,"Dipterorum":17081,"##ása":17082,"mois":17083,"Partido":17084,"##פות":17085,"Justice":17086,"reached":17087,"млн":17088,"Pháp":17089,"orbit":17090,"sedan":17091,"##ides":17092,"Nazionale":17093,"dr":17094,"116":17095,"Libraries":17096,"după":17097,"##lte":17098,"Arizona":17099,"##ность":17100,"Another":17101,"će":17102,"bisa":17103,"Welt":17104,"tế":17105,"##ând":17106,"februar":17107,"norra":17108,"##தி":17109,"##ह":17110,"Colorado":17111,"saw":17112,"##gy":17113,"Efter":17114,"##מת":17115,"Just":17116,"##ое":17117,"siguiente":17118,"Jewish":17119,"División":17120,"Now":17121,"almost":17122,"movement":17123,"artista":17124,"führte":17125,"Regiment":17126,"составляет":17127,"espèce":17128,"gebied":17129,"Palgrave":17130,"210":17131,"Frederick":17132,"Morgan":17133,"aasta":17134,"sống":17135,"##skih":17136,"##ets":17137,"##성":17138,"legal":17139,"##bal":17140,"Gustav":17141,"број":17142,"tallet":17143,"Let":17144,"##ır":17145,"##isten":17146,"agli":17147,"rehiyon":17148,"وهي":17149,"management":17150,"Sainte":17151,"находится":17152,"##פים":17153,"petit":17154,"behind":17155,"southern":17156,"Dalam":17157,"Musik":17158,"troch":17159,"Today":17160,"Morris":17161,"5월":17162,"units":17163,"качестве":17164,"##kog":17165,"Revolution":17166,"##ников":17167,"letzten":17168,"الولايات":17169,"mempunyai":17170,"##ક":17171,"basis":17172,"osób":17173,"Liste":17174,"network":17175,"också":17176,"Historical":17177,"##нето":17178,"##њу":17179,"Robin":17180,"##dus":17181,"##igt":17182,"skal":17183,"maakt":17184,"chiesa":17185,"##ёт":17186,"מספר":17187,"Charlotte":17188,"Studios":17189,"jordbruksmark":17190,"proprio":17191,"zegoen":17192,"Selected":17193,"neben":17194,"UNESCO":17195,"##구":17196,"فیلم":17197,"##λ":17198,"Pablo":17199,"Bayern":17200,"##وب":17201,"sve":17202,"##ते":17203,"##лся":17204,"##בה":17205,"1월":17206,"później":17207,"##dig":17208,"Guinea":17209,"##ਣ":17210,"Object":17211,"große":17212,"нем":17213,"ਨੇ":17214,"costa":17215,"Apple":17216,"complex":17217,"Jeff":17218,"кој":17219,"lực":17220,"nagy":17221,"beide":17222,"Santos":17223,"##inin":17224,"##ður":17225,"Cuba":17226,"Gallery":17227,"##sme":17228,"##rde":17229,"egyik":17230,"quasi":17231,"obce":17232,"scored":17233,"1200":17234,"Express":17235,"cantante":17236,"жизни":17237,"cel":17238,"כך":17239,"##нии":17240,"Straße":17241,"##und":17242,"экз":17243,"Many":17244,"వ్యవస్థ":17245,"##ského":17246,"epi":17247,"Corps":17248,"##ż":17249,"Wang":17250,"##hausen":17251,"Daily":17252,"6월":17253,"##жа":17254,"mat":17255,"dieses":17256,"раз":17257,"Rusia":17258,"##iai":17259,"König":17260,"անգլ":17261,"CIA":17262,"Edwards":17263,"Championships":17264,"Christmas":17265,"Contemporary":17266,"faritr":17267,"Luigi":17268,"##jú":17269,"decided":17270,"Danmark":17271,"##sz":17272,"վրա":17273,"निसें":17274,"##ament":17275,"steht":17276,"##۰":17277,"તેમ":17278,"##्या":17279,"3D":17280,"profesor":17281,"1825":17282,"length":17283,"pak":17284,"##ities":17285,"Kilometer":17286,"hui":17287,"municipality":17288,"8월":17289,"Mars":17290,"одним":17291,"інших":17292,"parents":17293,"##рі":17294,"biasanya":17295,"feet":17296,"उत्तर":17297,"##pin":17298,"##נת":17299,"diễn":17300,"tinha":17301,"##ά":17302,"besteht":17303,"##ació":17304,"période":17305,"influence":17306,"tale":17307,"Remix":17308,"ship":17309,"souvent":17310,"lipca":17311,"oldu":17312,"market":17313,"Fritz":17314,"conditions":17315,"Dream":17316,"##یا":17317,"großen":17318,"права":17319,"södra":17320,"zweiten":17321,"1700":17322,"campaign":17323,"във":17324,"তারিখ":17325,"Raymond":17326,"brought":17327,"##ání":17328,"##غ":17329,"successful":17330,"commercial":17331,"##wane":17332,"rest":17333,"jeu":17334,"northern":17335,"Andreas":17336,"Paolo":17337,"Kiba":17338,"ob":17339,"Ces":17340,"Survey":17341,"##라":17342,"##кан":17343,"##า":17344,"##ול":17345,"##သော":17346,"Medal":17347,"##ță":17348,"custodian":17349,"João":17350,"среди":17351,"provincie":17352,"##sar":17353,"island":17354,"##ница":17355,"##lang":17356,"Vilnius":17357,"людей":17358,"meses":17359,"##군":17360,"canción":17361,"duas":17362,"tutto":17363,"doit":17364,"Arab":17365,"##ця":17366,"need":17367,"produce":17368,"இது":17369,"##fica":17370,"##ель":17371,"sierpnia":17372,"abitanti":17373,"Stati":17374,"soll":17375,"Doctor":17376,"reste":17377,"principales":17378,"సరఫరా":17379,"افراد":17380,"mans":17381,"county":17382,"ის":17383,"approximately":17384,"Age":17385,"público":17386,"##jų":17387,"οποία":17388,"##ča":17389,"tournament":17390,"luego":17391,"##ord":17392,"##ət":17393,"##aa":17394,"وكان":17395,"udalerri":17396,"##ლ":17397,"1829":17398,"Stefan":17399,"Durch":17400,"tetapi":17401,"שלו":17402,"##tiva":17403,"Đại":17404,"##ม":17405,"így":17406,"##ª":17407,"##sie":17408,"ole":17409,"Praha":17410,"kW":17411,"armée":17412,"##ज":17413,"##stan":17414,"##any":17415,"male":17416,"sector":17417,"121":17418,"ktorá":17419,"##το":17420,"AS":17421,"##ß":17422,"##kon":17423,"Meksiko":17424,"industry":17425,"Bridge":17426,"instead":17427,"##gne":17428,"Papa":17429,"gọi":17430,"stati":17431,"Sound":17432,"enpresa":17433,"Par":17434,"однако":17435,"5000":17436,"##ip":17437,"##dən":17438,"Cultural":17439,"turno":17440,"Champions":17441,"##dis":17442,"THE":17443,"##شت":17444,"1828":17445,"our":17446,"כדי":17447,"Captain":17448,"001":17449,"Ett":17450,"##ө":17451,"Place":17452,"altro":17453,"1806":17454,"##czne":17455,"##కి":17456,"mehrere":17457,"Bakı":17458,"popisu":17459,"##িত":17460,"11월":17461,"##פת":17462,"##kal":17463,"elements":17464,"стали":17465,"results":17466,"##sion":17467,"required":17468,"##jā":17469,"##kus":17470,"##רי":17471,"Orchestra":17472,"elevation":17473,"Memorial":17474,"aholi":17475,"Pietro":17476,"previously":17477,"político":17478,"czasie":17479,"##mat":17480,"##wyd":17481,"noin":17482,"##cida":17483,"122":17484,"calciatore":17485,"deutsche":17486,"américain":17487,"##ес":17488,"ua":17489,"##pu":17490,"especially":17491,"dagat":17492,"Stewart":17493,"diện":17494,"##דה":17495,"##gus":17496,"дел":17497,"Coast":17498,"##ತ":17499,"ihrem":17500,"ruolo":17501,"##jar":17502,"Amerikaanse":17503,"کیلومتر":17504,"##cer":17505,"##ன":17506,"Perancis":17507,"rapport":17508,"nyaéta":17509,"Laura":17510,"##দ":17511,"edificio":17512,"##bil":17513,"##out":17514,"118":17515,"город":17516,"род":17517,"##non":17518,"##teur":17519,"2월":17520,"LP":17521,"lý":17522,"Gemeinden":17523,"varias":17524,"##mm":17525,"Euro":17526,"figure":17527,"##cje":17528,"Sultan":17529,"##ction":17530,"traditional":17531,"##dı":17532,"Gray":17533,"هر":17534,"lalawigan":17535,"складу":17536,"feat":17537,"цього":17538,"##یل":17539,"Get":17540,"Đức":17541,"лат":17542,"राज्यया":17543,"below":17544,"##ος":17545,"##ának":17546,"hatten":17547,"##০":17548,"Однако":17549,"Coupe":17550,"Their":17551,"internationale":17552,"report":17553,"jazz":17554,"outside":17555,"writer":17556,"সংগ্রহের":17557,"campionato":17558,"дорад":17559,"##endo":17560,"Anfang":17561,"Обь":17562,"##քի":17563,"быў":17564,"Pop":17565,"##მა":17566,"Angel":17567,"##σαν":17568,"Steven":17569,"Санкт":17570,"گیا":17571,"basa":17572,"Muhammad":17573,"means":17574,"##み":17575,"Bishop":17576,"##èrent":17577,"аст":17578,"mayoría":17579,"Wrestling":17580,"которого":17581,"##esi":17582,"organization":17583,"##த்து":17584,"listed":17585,"olivat":17586,"itself":17587,"originale":17588,"Indonésia":17589,"Garden":17590,"міста":17591,"127":17592,"corps":17593,"##하게":17594,"##nju":17595,"ਇਸ":17596,"أكثر":17597,"honor":17598,"Ez":17599,"đối":17600,"##ются":17601,"behoort":17602,"lived":17603,"serta":17604,"Nella":17605,"Grant":17606,"Ao":17607,"##nel":17608,"##ib":17609,"deres":17610,"sometimes":17611,"svensk":17612,"kunnen":17613,"имени":17614,"##ät":17615,"##ical":17616,"##ande":17617,"menor":17618,"były":17619,"Société":17620,"było":17621,"есть":17622,"veces":17623,"outras":17624,"##ნი":17625,"Miami":17626,"primary":17627,"gouvernement":17628,"olduğu":17629,"Woman":17630,"быть":17631,"близько":17632,"arbeitete":17633,"জন্য":17634,"engelsk":17635,"Projektu":17636,"writing":17637,"##כה":17638,"менән":17639,"Kr":17640,"##eli":17641,"između":17642,"UCB":17643,"interest":17644,"##stvo":17645,"##०":17646,"voe":17647,"seves":17648,"musique":17649,"então":17650,"کیا":17651,"بلغ":17652,"Bull":17653,"##tivo":17654,"##부터":17655,"##lie":17656,"aki":17657,"##という":17658,"##ському":17659,"বা":17660,"##nal":17661,"única":17662,"departament":17663,"afin":17664,"YouTube":17665,"Forest":17666,"locuitori":17667,"Berg":17668,"kwietnia":17669,"##ione":17670,"##ró":17671,"rata":17672,"Rafael":17673,"dok":17674,"району":17675,"##ത്":17676,"która":17677,"Official":17678,"մասին":17679,"Folge":17680,"Route":17681,"liste":17682,"Бассейн":17683,"bit":17684,"nhiên":17685,"Jerry":17686,"seat":17687,"##یه":17688,"champion":17689,"така":17690,"östra":17691,"Republike":17692,"Dutch":17693,"Dom":17694,"changed":17695,"attended":17696,"istiqomat":17697,"fand":17698,"ইংরেজি":17699,"##ži":17700,"##ээ":17701,"Water":17702,"##pel":17703,"score":17704,"Marshall":17705,"##었다":17706,"drugi":17707,"figura":17708,"obec":17709,"GovPubs":17710,"##זה":17711,"Play":17712,"SM":17713,"##mba":17714,"periode":17715,"Collection":17716,"donne":17717,"torneo":17718,"Silva":17719,"##inde":17720,"amely":17721,"Catalunya":17722,"ultimo":17723,"plays":17724,"award":17725,"אותו":17726,"oeste":17727,"López":17728,"##ే":17729,"##제":17730,"nye":17731,"Design":17732,"Arnold":17733,"continue":17734,"Haute":17735,"ih":17736,"되었다":17737,"significa":17738,"tính":17739,"مارس":17740,"bizi":17741,"რომელიც":17742,"όπως":17743,"invece":17744,"ГӨ":17745,"minor":17746,"Sons":17747,"femme":17748,"Jon":17749,"##yer":17750,"EU":17751,"##כת":17752,"ул":17753,"##aja":17754,"vilket":17755,"##ude":17756,"FAQ":17757,"eeuw":17758,"##ева":17759,"jadi":17760,"##nk":17761,"##ρα":17762,"anglais":17763,"Mix":17764,"##хь":17765,"##च्या":17766,"train":17767,"Airlines":17768,"alebo":17769,"västra":17770,"##czy":17771,"buildings":17772,"đường":17773,"##erung":17774,"переписи":17775,"enn":17776,"##dat":17777,"##ಕ್ಕೆ":17778,"Pas":17779,"##овой":17780,"past":17781,"Gli":17782,"tạo":17783,"Melbourne":17784,"##ники":17785,"libre":17786,"##בר":17787,"##ologie":17788,"està":17789,"vụ":17790,"str":17791,"##jer":17792,"##ை":17793,"1802":17794,"##sos":17795,"teatro":17796,"bướm":17797,"थे":17798,"sollte":17799,"finales":17800,"cola":17801,"tuli":17802,"Dame":17803,"##има":17804,"bland":17805,"Tây":17806,"studierte":17807,"армии":17808,"épisode":17809,"Primera":17810,"ayisyen":17811,"död":17812,"126":17813,"במהלך":17814,"Area":17815,"аб":17816,"Kennedy":17817,"سن":17818,"vì":17819,"theory":17820,"##تا":17821,"Presidente":17822,"##ného":17823,"##eurs":17824,"museum":17825,"तिथि":17826,"Einwohner":17827,"toujours":17828,"##nici":17829,"mình":17830,"1824":17831,"Extragalactic":17832,"##य्":17833,"blant":17834,"dog":17835,"lingua":17836,"##pia":17837,"trova":17838,"بودهاست":17839,"González":17840,"conquest":17841,"ofte":17842,"senior":17843,"stal":17844,"allerdings":17845,"featuring":17846,"hizo":17847,"##ਮ":17848,"Geiger":17849,"issues":17850,"aller":17851,"##лер":17852,"Warner":17853,"Springer":17854,"اما":17855,"##chten":17856,"população":17857,"числе":17858,"280":17859,"find":17860,"Standard":17861,"145":17862,"##ає":17863,"soon":17864,"##ška":17865,"θα":17866,"kuin":17867,"mètres":17868,"nᵒ":17869,"##keit":17870,"##əsi":17871,"Sommer":17872,"Chart":17873,"##լ":17874,"роках":17875,"complete":17876,"মানুলেহা":17877,"##യിൽ":17878,"Poland":17879,"chaque":17880,"fjärilsart":17881,"Avenue":17882,"##hip":17883,"especial":17884,"geboren":17885,"##ದಲ್ಲಿ":17886,"1789":17887,"руск":17888,"그는":17889,"château":17890,"чи":17891,"##ein":17892,"1813":17893,"##erne":17894,"paper":17895,"##ക":17896,"Stars":17897,"Academia":17898,"nou":17899,"себя":17900,"уггаре":17901,"Köppen":17902,"##lly":17903,"view":17904,"Meksika":17905,"##ндә":17906,"##ual":17907,"होते":17908,"Wisconsin":17909,"1826":17910,"##پ":17911,"significant":17912,"runs":17913,"данным":17914,"##town":17915,"jours":17916,"Murray":17917,"Assembly":17918,"Monitoring":17919,"money":17920,"tijdens":17921,"##ոն":17922,"##אל":17923,"sólo":17924,"sport":17925,"Antoine":17926,"##ém":17927,"##gon":17928,"##worth":17929,"bronze":17930,"##zet":17931,"1818":17932,"яке":17933,"Uniti":17934,"AG":17935,"board":17936,"bang":17937,
[...]
